<unk>	0
<s>	0
</s>	0
,	-3.0235
.	-3.20149
'	-3.56436
▁to	-3.6055
▁the	-3.68418
▁that	-3.88965
▁of	-3.91109
s	-3.91397
▁you	-3.9661
▁a	-3.9805
▁and	-4.07629
▁I	-4.09828
▁is	-4.45767
▁in	-4.56473
▁it	-4.57346
:	-4.90032
re	-4.91445
▁or	-4.98502
▁So	-4.99347
▁for	-5.00499
▁	-5.00663
t	-5.10694
▁we	-5.12676
ing	-5.15549
▁do	-5.17689
▁And	-5.24343
▁be	-5.29697
▁your	-5.3105
▁can	-5.31156
▁on	-5.3398
▁are	-5.37743
▁Huberman	-5.38125
▁not	-5.40062
▁like	-5.40114
▁this	-5.44138
▁going	-5.4794
▁have	-5.48645
▁if	-5.48796
▁Andrew	-5.49535
▁about	-5.54068
?	-5.57746
▁with	-5.57853
▁just	-5.60602
▁as	-5.70792
▁what	-5.71873
▁one	-5.72773
▁but	-5.75271
▁training	-5.77154
▁at	-5.79097
m	-5.7917
▁there	-5.81176
▁get	-5.81407
▁really	-5.83226
▁they	-5.84269
▁Andy	-5.84934
ed	-5.87294
▁so	-5.89973
ly	-5.95645
▁all	-5.96161
▁some	-5.96222
▁people	-5.99154
▁want	-6.00665
▁think	-6.01092
▁more	-6.01557
▁very	-6.03325
▁don	-6.04245
▁then	-6.07972
▁because	-6.0903
▁But	-6.09724
▁up	-6.1193
▁muscle	-6.12493
▁my	-6.12744
▁out	-6.12887
▁Galpin	-6.15335
ve	-6.16743
n	-6.19469
▁things	-6.2322
▁You	-6.23434
d	-6.25238
▁was	-6.27528
▁from	-6.30184
▁It	-6.30352
▁strength	-6.30772
▁which	-6.31653
▁go	-6.33824
▁doing	-6.35249
▁those	-6.3527
▁lot	-6.3533
▁an	-6.35866
▁when	-6.36576
▁would	-6.39005
▁actually	-6.3902
▁work	-6.40151
▁exercise	-6.41613
▁three	-6.44572
ll	-6.45292
▁two	-6.46615
▁into	-6.47275
▁other	-6.48779
▁right	-6.53755
▁me	-6.55067
▁hypertrophy	-6.55196
▁day	-6.55546
▁will	-6.55949
▁say	-6.56668
▁how	-6.56703
▁these	-6.57146
▁time	-6.57519
▁again	-6.59029
▁The	-6.60849
▁also	-6.61005
▁way	-6.61832
▁know	-6.61873
▁could	-6.63366
▁even	-6.63516
▁by	-6.6384
e	-6.64443
▁their	-6.65091
▁little	-6.66667
▁That	-6.68816
▁something	-6.70095
▁who	-6.72596
▁back	-6.73163
▁body	-6.73224
▁take	-6.7345
▁Peter	-6.7361
▁week	-6.74032
▁any	-6.76599
▁bit	-6.76909
▁Attia	-6.77738
▁where	-6.80135
▁see	-6.80998
▁different	-6.82384
▁sort	-6.83112
▁workout	-6.8396
▁long	-6.84047
▁thing	-6.86003
▁look	-6.86852
▁If	-6.8689
▁much	-6.87573
▁five	-6.87588
▁sets	-6.88202
▁maybe	-6.88622
▁most	-6.89118
▁high	-6.89625
▁well	-6.91088
▁them	-6.91397
y	-6.91449
▁talk	-6.93545
▁now	-6.9544
▁minutes	-6.95478
▁We	-6.95492
▁our	-6.95504
▁Now	-6.95642
▁make	-6.95712
▁through	-6.96223
▁than	-6.97447
▁per	-6.97634
▁use	-6.98746
▁has	-6.99886
▁number	-7.01004
▁no	-7.02454
▁need	-7.02506
▁fitness	-7.05035
▁should	-7.06218
▁kind	-7.06649
▁does	-7.08616
▁weight	-7.10345
▁endurance	-7.12045
▁down	-7.12721
▁many	-7.12728
▁here	-7.13717
▁testosterone	-7.16776
ight	-7.17013
▁A	-7.1781
▁m	-7.17945
▁Yeah	-7.18163
▁good	-7.18872
▁train	-7.19492
▁were	-7.19924
▁over	-7.20069
▁same	-7.20302
▁important	-7.20305
▁did	-7.21082
▁set	-7.23755
▁podcast	-7.24623
al	-7.25297
▁between	-7.26963
▁off	-7.27225
▁cetera	-7.27731
▁In	-7.27784
▁et	-7.29942
▁repetition	-7.29984
▁every	-7.3007
▁give	-7.30702
▁health	-7.31726
▁There	-7.33049
▁trying	-7.34473
▁What	-7.34935
▁getting	-7.34989
▁mean	-7.35412
▁great	-7.35734
▁ten	-7.36568
▁movement	-7.38366
▁start	-7.38692
ther	-7.39929
▁They	-7.40362
▁done	-7.40537
▁got	-7.40572
▁blood	-7.40917
▁sure	-7.41098
▁rest	-7.41662
▁terms	-7.42284
▁intensity	-7.42698
▁point	-7.43134
▁still	-7.43599
out	-7.43715
▁fact	-7.44536
▁range	-7.44706
▁only	-7.45045
able	-7.45156
▁course	-7.46349
▁first	-7.46351
▁before	-7.47293
▁hear	-7.47995
▁power	-7.48355
▁he	-7.4931
▁protein	-7.49536
▁better	-7.50141
▁come	-7.50268
▁French	-7.53082
ty	-7.53271
▁been	-7.53419
▁resistance	-7.54084
▁Duncan	-7.55091
▁low	-7.55502
▁had	-7.5719
▁try	-7.58855
▁cold	-7.5924
▁during	-7.60301
▁why	-7.60388
▁probab	-7.61208
▁enough	-7.62462
▁hard	-7.6256
▁Well	-7.62763
▁talking	-7.63383
▁least	-7.63564
▁after	-7.63639
▁us	-7.64614
▁specific	-7.64666
▁order	-7.65588
▁total	-7.65715
▁Dr	-7.65857
▁days	-7.66179
r	-7.66828
▁called	-7.67318
▁lower	-7.68166
▁put	-7.68284
▁science	-7.6927
▁being	-7.69569
▁cardiovascular	-7.70424
▁repetitions	-7.70563
▁system	-7.70613
▁workouts	-7.70811
▁type	-7.71192
▁volume	-7.71611
▁whe	-7.7191
▁best	-7.7235
▁next	-7.72812
▁cholesterol	-7.72819
▁30	-7.72865
▁group	-7.73578
▁reason	-7.73778
▁sleep	-7.73814
-	-7.74005
▁increase	-7.74489
▁let	-7.74569
▁episode	-7.7485
▁around	-7.75366
▁year	-7.76122
▁said	-7.76521
▁life	-7.76527
▁years	-7.76922
le	-7.77064
▁P	-7.77443
▁Okay	-7.77782
▁recovery	-7.77836
▁times	-7.78492
▁feel	-7.78585
▁six	-7.79067
▁while	-7.79067
▁basically	-7.79072
▁once	-7.79289
▁using	-7.7974
▁al	-7.80734
▁today	-7.82227
▁un	-7.82346
▁four	-7.83021
▁less	-7.83709
▁p	-7.84081
▁call	-7.84107
▁too	-7.84609
▁protocol	-7.85432
▁question	-7.85437
▁simply	-7.8574
▁always	-7.87143
▁speed	-7.87143
▁load	-7.87906
▁performance	-7.88541
▁tell	-7.88785
▁Thi	-7.89877
▁somebody	-7.89997
▁t	-7.90551
▁general	-7.91228
▁program	-7.91239
▁case	-7.91298
▁exercises	-7.91337
▁anything	-7.91463
er	-7.91972
▁leg	-7.92709
▁pre	-7.92777
▁neck	-7.92878
▁often	-7.93224
▁20	-7.9394
st	-7.94056
▁stuff	-7.94372
▁each	-7.9443
▁certainly	-7.94513
▁andy	-7.95629
▁Right	-7.95912
▁run	-7.96873
▁Lab	-7.97421
▁women	-7.97424
▁failure	-7.97426
▁weeks	-7.98397
▁estrogen	-7.98989
▁muscles	-7.99796
▁part	-8.00479
▁improve	-8.00546
▁risk	-8.00576
▁Again	-8.00578
▁legs	-8.00775
▁allow	-8.02128
▁maintain	-8.02196
▁whatever	-8.02227
▁higher	-8.02332
▁ability	-8.02401
ous	-8.03209
▁understand	-8.03352
▁T	-8.03613
▁focus	-8.03721
▁stress	-8.03766
▁generally	-8.04037
▁eight	-8.04049
▁nutrition	-8.04655
▁last	-8.0502
▁tend	-8.05175
▁cardio	-8.05492
▁another	-8.05545
▁fat	-8.05748
th	-8.05779
▁working	-8.06262
o	-8.06354
▁tools	-8.06404
▁find	-8.0669
com	-8.06993
▁jump	-8.07181
▁warm	-8.07185
es	-8.0812
▁seem	-8.08717
▁okay	-8.08908
▁data	-8.08912
▁hormone	-8.08987
▁both	-8.09456
▁zone	-8.10663
▁free	-8.10668
▁either	-8.10752
▁keep	-8.11965
▁entire	-8.12259
▁example	-8.12602
▁groups	-8.13124
▁running	-8.14281
▁mentioned	-8.14327
▁may	-8.1435
▁second	-8.14419
▁move	-8.1445
▁fast	-8.14886
▁S	-8.15147
▁end	-8.1516
▁effective	-8.15929
▁large	-8.1605
▁everything	-8.16138
▁hit	-8.16255
▁amount	-8.16325
▁matter	-8.16326
▁goal	-8.16758
▁close	-8.17031
▁squat	-8.17563
▁movements	-8.17895
▁means	-8.1795
▁metabolic	-8.18025
▁few	-8.18035
▁rate	-8.18494
▁change	-8.18707
▁B	-8.18801
a	-8.19794
▁creatine	-8.19938
▁s	-8.19944
▁person	-8.20276
te	-8.21209
▁study	-8.21325
▁real	-8.21627
▁position	-8.21805
▁typically	-8.21982
▁sometimes	-8.22052
▁longer	-8.22072
▁based	-8.22307
▁reasons	-8.22611
▁For	-8.22979
▁benefits	-8.23544
▁certain	-8.23706
▁quality	-8.23892
▁love	-8.24092
▁benefit	-8.24241
▁answer	-8.24244
▁mind	-8.24744
▁yeah	-8.25928
▁adaptation	-8.26314
▁level	-8.26316
▁hours	-8.26936
▁within	-8.27067
▁age	-8.27374
▁particular	-8.27831
robably	-8.27849
▁complete	-8.27969
▁especially	-8.28015
▁multiple	-8.28027
▁believe	-8.28046
▁One	-8.28061
▁having	-8.28149
▁bar	-8.28698
▁brain	-8.30144
▁heat	-8.305
▁athletes	-8.31237
▁tak	-8.31831
▁big	-8.31972
▁C	-8.32112
▁clear	-8.32209
▁couple	-8.32314
▁Because	-8.32316
▁earlier	-8.32316
▁growth	-8.32341
▁never	-8.32341
▁walk	-8.32357
▁absolutely	-8.32379
▁moving	-8.32404
▁build	-8.33723
▁exact	-8.34221
▁exposure	-8.34537
▁size	-8.34575
▁small	-8.34697
▁rep	-8.35006
▁under	-8.35431
▁supplements	-8.3555
▁qui	-8.35581
▁max	-8.36805
▁twelve	-8.36816
▁discussion	-8.36829
▁bring	-8.37029
▁breathing	-8.37054
though	-8.3739
▁single	-8.37481
▁her	-8.38475
▁needs	-8.38501
▁physical	-8.3894
▁F	-8.39031
▁across	-8.39155
▁far	-8.39202
▁related	-8.3937
▁play	-8.39645
on	-8.40504
0	-8.40522
▁depend	-8.41426
▁else	-8.41499
▁perhaps	-8.41516
▁necessarily	-8.41516
▁specifically	-8.41567
▁interesting	-8.41616
most	-8.4165
▁protocols	-8.4205
▁minute	-8.42238
▁include	-8.42306
▁though	-8.43068
▁side	-8.43165
▁reps	-8.43462
▁ask	-8.43484
▁makes	-8.43684
▁zero	-8.4395
▁research	-8.43954
▁information	-8.43956
▁addition	-8.43957
▁already	-8.43958
▁instance	-8.43986
▁15	-8.44518
▁response	-8.44759
▁sessions	-8.45522
▁adaptations	-8.45994
▁later	-8.46401
▁glucose	-8.46453
▁yourself	-8.46487
▁pick	-8.46546
▁fine	-8.46589
▁true	-8.46605
▁conversation	-8.47304
▁ranges	-8.48509
▁Or	-8.48925
▁help	-8.49007
▁easy	-8.49014
▁maximum	-8.49016
▁such	-8.49018
▁pull	-8.49566
▁patients	-8.49769
us	-8.49894
▁sport	-8.49966
▁design	-8.5068
▁push	-8.51159
▁provide	-8.51623
▁synthesis	-8.51649
▁skill	-8.51675
▁LDL	-8.5189
▁away	-8.52244
▁ago	-8.52347
▁idea	-8.52461
▁problem	-8.52632
▁session	-8.52638
▁bone	-8.5279
ion	-8.52904
▁60	-8.53059
▁happens	-8.53084
or	-8.53446
▁short	-8.54102
▁experience	-8.5412
▁his	-8.54331
▁studies	-8.5435
▁stronger	-8.54395
▁goes	-8.55005
▁support	-8.55042
▁variables	-8.55097
▁force	-8.55215
▁tissue	-8.55389
▁super	-8.55768
▁used	-8.55949
ation	-8.56394
▁Do	-8.56872
▁form	-8.57069
▁mattress	-8.57128
▁Like	-8.57128
▁However	-8.57131
▁No	-8.57215
▁ever	-8.57486
pret	-8.5818
▁month	-8.58282
▁effects	-8.58315
▁1	-8.58826
▁changes	-8.59568
▁fatigue	-8.59764
▁How	-8.59979
▁heavy	-8.59982
▁world	-8.59984
▁difference	-8.59986
▁seven	-8.60017
▁When	-8.60116
▁totally	-8.60483
▁function	-8.6051
ally	-8.60651
▁All	-8.60725
▁Monday	-8.61172
▁w	-8.61617
▁He	-8.62652
▁realize	-8.62699
▁myself	-8.62934
▁lose	-8.63065
▁eat	-8.63172
▁N	-8.63447
▁muscular	-8.63691
▁com	-8.6397
▁she	-8.6428
▁term	-8.64463
▁ra	-8.64762
▁diet	-8.65071
▁count	-8.65394
▁show	-8.6545
▁add	-8.65602
▁strong	-8.66077
▁care	-8.66299
▁E	-8.66302
▁thinking	-8.66304
%	-8.66565
▁gets	-8.66619
▁yes	-8.67088
▁place	-8.67592
▁tool	-8.68087
▁control	-8.68462
▁remember	-8.69079
▁torso	-8.69079
▁newsletter	-8.6908
▁progesterone	-8.6908
▁bunch	-8.69081
▁interested	-8.69139
▁slow	-8.69238
▁ways	-8.69301
▁oh	-8.69317
▁questions	-8.69771
▁happen	-8.6985
▁grow	-8.69941
▁re	-8.70536
▁vers	-8.70536
▁choice	-8.70549
▁break	-8.70562
▁non	-8.70602
▁cycle	-8.70791
▁round	-8.71625
▁seconds	-8.72038
▁physiological	-8.72107
▁check	-8.72297
▁energy	-8.72303
▁extreme	-8.72304
▁disease	-8.72304
▁hike	-8.72309
▁milligrams	-8.72345
▁possible	-8.72348
▁cost	-8.72393
▁someone	-8.72626
▁L	-8.72683
est	-8.72945
▁heard	-8.72984
▁Th	-8.73336
▁bike	-8.73859
▁drug	-8.73912
▁athlete	-8.73983
▁measure	-8.74346
▁consider	-8.75368
▁gym	-8.75622
▁folks	-8.75635
▁sense	-8.75657
▁imagine	-8.75666
▁turn	-8.75669
▁Yes	-8.75699
▁optimal	-8.7571
▁anywhere	-8.75721
▁overall	-8.7575
▁stay	-8.75772
▁grams	-8.75963
is	-8.76002
▁biceps	-8.76028
▁50	-8.76167
▁continue	-8.76201
less	-8.76475
l	-8.76812
▁Sunday	-8.77271
▁weights	-8.77298
▁hour	-8.77404
▁months	-8.77666
▁incorporate	-8.77815
▁test	-8.78268
▁drive	-8.78749
▁hormones	-8.78949
▁enhance	-8.79042
▁create	-8.79059
▁bench	-8.79085
▁series	-8.7909
▁mass	-8.79098
▁maximize	-8.79132
▁outside	-8.79152
▁faster	-8.79192
▁night	-8.79235
▁early	-8.79316
▁saying	-8.79826
▁please	-8.80047
▁Some	-8.80087
per	-8.8019
▁M	-8.80306
me	-8.80705
▁notice	-8.80837
▁cause	-8.81785
▁area	-8.81808
▁200	-8.8193
▁learn	-8.81941
▁levels	-8.81976
▁nerv	-8.82253
▁major	-8.82634
▁am	-8.83244
▁individual	-8.83522
▁carbohydrate	-8.84636
▁Not	-8.84682
▁recover	-8.85365
▁describe	-8.86139
▁release	-8.86177
▁heavier	-8.86345
▁half	-8.86346
▁perform	-8.86349
▁emphasize	-8.86359
▁simple	-8.86363
▁moderate	-8.86368
▁supplementation	-8.86377
▁foundational	-8.86385
▁phase	-8.86416
▁quickly	-8.8644
▁hot	-8.86691
▁works	-8.86708
▁aspects	-8.87182
ic	-8.87455
▁cells	-8.87938
▁man	-8.88165
▁period	-8.88262
ble	-8.88274
▁supplement	-8.88447
▁new	-8.88642
▁line	-8.89499
▁men	-8.89596
▁damage	-8.89962
▁social	-8.89969
▁lifespan	-8.90192
▁distance	-8.90192
▁huge	-8.90192
▁nine	-8.90198
▁spend	-8.90221
▁25	-8.90261
▁bad	-8.90298
▁neuro	-8.90317
▁lifting	-8.90637
▁old	-8.90698
▁learning	-8.90712
▁mental	-8.90838
▁relate	-8.90952
▁won	-8.91014
▁full	-8.91346
▁sit	-8.92213
in	-8.92334
▁meaning	-8.92402
ar	-8.92442
▁cell	-8.92546
▁starts	-8.9321
▁throw	-8.93605
▁fuel	-8.93707
▁feeling	-8.93799
▁brief	-8.93995
▁attention	-8.94192
▁physiology	-8.94192
▁impact	-8.94192
▁key	-8.94195
▁output	-8.94204
▁terrific	-8.94206
▁yet	-8.94314
▁took	-8.9434
▁portion	-8.94457
▁press	-8.94644
▁pure	-8.94788
▁R	-8.95612
▁lift	-8.96457
▁effect	-8.9658
▁interval	-8.96625
▁issue	-8.96727
▁depends	-8.97079
▁state	-8.9722
▁br	-8.97254
▁progress	-8.97663
▁dose	-8.97909
▁recommend	-8.98085
▁4	-8.98153
▁wanted	-8.98205
▁approach	-8.98271
▁difficult	-8.98358
▁frequency	-8.98358
▁schedule	-8.98358
▁duration	-8.98358
▁eccentric	-8.98359
▁morning	-8.9836
▁soleus	-8.9836
▁everybody	-8.98386
▁hold	-8.98394
▁changing	-8.984
▁putting	-8.98405
▁choose	-8.98409
▁contraction	-8.98411
▁extend	-8.98621
▁towards	-8.99699
▁process	-8.99702
▁100	-8.99799
▁vari	-8.99967
▁starting	-9.00515
▁routine	-9.00873
▁ice	-9.0089
▁technique	-9.00901
ized	-9.01651
▁hand	-9.01975
▁drop	-9.02121
▁signal	-9.02258
▁post	-9.02386
comes	-9.0261
▁deliberate	-9.02706
▁literature	-9.02706
▁themselves	-9.02706
▁frankly	-9.02706
▁enjoy	-9.02707
▁woman	-9.02708
▁development	-9.02711
▁beginning	-9.02713
▁ground	-9.02767
ust	-9.02801
▁directly	-9.02803
▁making	-9.02908
▁larger	-9.02965
▁finish	-9.03046
▁head	-9.03094
where	-9.03282
▁eating	-9.03361
▁classic	-9.03548
▁2	-9.03604
▁10	-9.03751
nt	-9.03874
▁40	-9.03914
▁core	-9.03928
an	-9.0403
▁tru	-9.04073
▁guys	-9.04223
▁increases	-9.04242
▁periods	-9.04715
▁carbohydrates	-9.04776
▁de	-9.05171
▁link	-9.05249
▁compound	-9.0541
se	-9.06242
▁breath	-9.06509
en	-9.06519
▁reach	-9.06522
▁stretch	-9.06533
▁To	-9.06884
▁typical	-9.07067
▁beneficial	-9.07252
▁athletic	-9.07252
▁daily	-9.07252
▁stimulus	-9.07252
▁insulin	-9.07253
▁exist	-9.07287
▁him	-9.07356
▁relative	-9.07361
▁appropriate	-9.07363
▁everyone	-9.07372
▁b	-9.07393
▁chin	-9.07448
▁parts	-9.0754
aking	-9.07568
▁provided	-9.07656
▁c	-9.07883
ce	-9.07894
▁D	-9.07907
▁snacks	-9.07953
▁air	-9.08253
▁concepts	-9.08523
▁understanding	-9.08609
be	-9.0925
▁referr	-9.09839
▁seen	-9.09999
▁known	-9.10323
▁bath	-9.10409
▁numbers	-9.10487
▁35	-9.10833
▁ca	-9.11037
▁squats	-9.11445
▁ideal	-9.11897
▁Wednesday	-9.12014
▁Athletic	-9.12014
▁density	-9.12014
▁Helix	-9.12014
▁calves	-9.12014
▁Today	-9.12021
▁overload	-9.12027
▁made	-9.12029
▁injury	-9.12038
▁Inside	-9.12046
▁obviously	-9.12047
▁challenging	-9.12051
▁peak	-9.1206
▁wait	-9.12068
▁essentially	-9.12082
▁f	-9.12114
▁phone	-9.12152
▁nothing	-9.12191
▁thank	-9.1221
▁reduce	-9.12266
▁stretching	-9.12511
▁aren	-9.12597
▁pr	-9.13504
▁episodes	-9.13677
▁sleeping	-9.13933
A	-9.14614
▁sore	-9.15014
til	-9.1513
▁fall	-9.1514
▁environment	-9.15191
▁decade	-9.15218
▁effort	-9.15218
▁shift	-9.15241
▁variation	-9.15279
▁guy	-9.15313
▁machine	-9.1548
▁May	-9.15514
▁forms	-9.15633
▁se	-9.16206
▁standard	-9.16519
▁listen	-9.16558
▁challenge	-9.16899
▁past	-9.1694
▁stand	-9.16981
▁category	-9.17014
▁context	-9.17014
▁wrong	-9.17014
▁jog	-9.17015
▁pressure	-9.17019
▁bigger	-9.17058
▁driving	-9.1706
▁however	-9.17067
▁stop	-9.17094
▁practice	-9.17095
▁spot	-9.17097
▁pause	-9.17104
▁plus	-9.17107
▁lead	-9.17182
▁fair	-9.17232
▁row	-9.17265
▁select	-9.17269
▁described	-9.17313
umber	-9.17431
▁wall	-9.17446
▁methods	-9.17555
▁pushing	-9.1794
▁walking	-9.1813
▁separate	-9.18147
ice	-9.18361
▁fibers	-9.18496
covered	-9.19121
▁r	-9.19127
▁sprint	-9.19826
▁deadlift	-9.1989
▁detail	-9.20297
▁channel	-9.2033
▁human	-9.20457
ity	-9.21129
ary	-9.21328
▁O	-9.21787
▁figure	-9.22106
ies	-9.22109
▁discuss	-9.22118
▁block	-9.2225
▁Correct	-9.22277
▁YouTube	-9.22277
▁enormous	-9.22277
▁unique	-9.22277
▁acknowledge	-9.22277
▁Great	-9.22278
▁periodization	-9.2228
▁water	-9.22284
▁80%	-9.22285
▁menopause	-9.22292
▁specificity	-9.22326
▁20%	-9.22333
▁chest	-9.22336
▁wonderful	-9.22351
▁concentric	-9.22394
▁live	-9.224
▁molecule	-9.22523
▁car	-9.22619
▁clearly	-9.22732
▁particularly	-9.2276
▁loss	-9.22793
▁focused	-9.22985
w	-9.2304
▁pulling	-9.23224
▁contract	-9.23521
▁own	-9.23529
▁factors	-9.23672
▁G	-9.23904
▁trained	-9.24167
▁sound	-9.24324
ful	-9.25198
▁includ	-9.25199
▁fit	-9.25585
▁combination	-9.26004
▁rule	-9.26054
▁occur	-9.26147
▁pro	-9.26221
▁top	-9.26695
▁personal	-9.26697
▁improv	-9.26838
▁goals	-9.27202
▁follow	-9.27356
▁cognitive	-9.27595
▁review	-9.27612
▁treat	-9.27628
▁tremendous	-9.27637
▁coach	-9.27766
▁piece	-9.27832
▁sauna	-9.27832
▁subscribe	-9.27832
▁excellent	-9.27833
▁adjust	-9.27837
▁calf	-9.27838
▁motion	-9.27877
definitely	-9.27894
▁media	-9.27897
▁immediately	-9.27924
▁together	-9.2795
▁below	-9.27986
▁fight	-9.28076
▁anyone	-9.28082
▁intake	-9.28115
▁careful	-9.28151
▁improvements	-9.28298
▁touch	-9.28378
▁effectively	-9.28412
▁shoulders	-9.29154
▁g	-9.29235
▁types	-9.29887
▁giv	-9.3007
eople	-9.30325
▁systemic	-9.306
▁sa	-9.30704
ought	-9.31389
▁sports	-9.31554
▁mineral	-9.31743
▁patient	-9.31981
▁fiber	-9.31996
▁genetic	-9.32009
▁lab	-9.32032
▁normal	-9.32066
▁become	-9.32257
▁cover	-9.32494
▁ratio	-9.32703
▁correct	-9.33525
▁limit	-9.33532
▁significant	-9.33597
ment	-9.33633
▁moment	-9.3369
▁access	-9.33713
▁longevity	-9.33715
▁opposite	-9.33715
▁sugar	-9.33715
▁minimum	-9.33715
▁metabolism	-9.33715
FC	-9.33715
▁population	-9.33715
▁further	-9.33715
▁activation	-9.33717
▁deep	-9.33727
▁barbell	-9.33728
▁nicotine	-9.33728
▁third	-9.33733
▁die	-9.33751
▁safely	-9.33768
▁apob	-9.33818
▁cancer	-9.33829
▁70%	-9.33836
▁thought	-9.3388
▁As	-9.33962
▁harder	-9.33976
▁pushups	-9.34103
▁match	-9.34305
▁induce	-9.34956
▁teach	-9.35013
▁Le	-9.35216
ite	-9.3589
▁ups	-9.37347
▁H	-9.37695
▁hope	-9.3772
▁fun	-9.3775
▁skip	-9.37763
one	-9.37936
▁paper	-9.3809
▁result	-9.38222
▁concept	-9.38228
▁variable	-9.38288
ness	-9.38468
▁toward	-9.38496
▁Then	-9.38515
▁joint	-9.38557
▁Al	-9.39298
▁target	-9.39465
▁previous	-9.39747
▁absolute	-9.39779
▁list	-9.39793
▁broad	-9.39908
▁Absolutely	-9.39965
▁avoid	-9.39965
▁PhD	-9.39965
▁flexibility	-9.39966
▁elite	-9.39967
▁regulation	-9.39973
▁quote	-9.39976
▁gain	-9.40011
▁anybody	-9.40036
▁conditioning	-9.40049
▁common	-9.4009
▁game	-9.40091
▁anabolic	-9.40096
▁somewhat	-9.40156
▁discussed	-9.40211
▁ideally	-9.4023
▁My	-9.40235
▁open	-9.40238
▁front	-9.40246
▁grip	-9.40252
▁driven	-9.40425
▁metrics	-9.40519
▁listening	-9.40561
▁signaling	-9.4067
▁happening	-9.40944
▁found	-9.40993
▁i	-9.41215
use	-9.41634
▁told	-9.41666
▁results	-9.41739
▁wh	-9.42141
time	-9.42782
▁looked	-9.42864
et	-9.43024
P	-9.43668
▁stimulate	-9.43873
to	-9.43961
8	-9.44253
as	-9.44682
▁field	-9.44732
▁Thank	-9.44788
▁eye	-9.44834
▁stressor	-9.44971
▁exhale	-9.4532
▁factor	-9.45324
▁d	-9.45369
▁says	-9.46096
▁travel	-9.46145
▁incredibl	-9.46283
▁meal	-9.4635
▁nice	-9.4643
▁mention	-9.46431
▁maximal	-9.46434
ent	-9.4649
▁require	-9.46551
▁Olympic	-9.46631
▁Tracker	-9.46631
▁advantage	-9.46631
▁bottom	-9.46631
▁capacity	-9.46631
▁estradiol	-9.46631
▁middle	-9.46631
▁sufficient	-9.46631
▁caveat	-9.46632
▁drink	-9.46632
▁contrast	-9.46636
▁Sleep	-9.46636
▁double	-9.4664
▁complicated	-9.46659
▁therefore	-9.46665
▁calm	-9.46716
▁independent	-9.46722
▁span	-9.46724
▁Why	-9.46734
premium	-9.46769
▁involved	-9.46778
▁basis	-9.46802
▁carry	-9.46816
▁jacks	-9.46825
▁therapy	-9.46875
▁clinical	-9.46883
▁light	-9.46922
▁fatigued	-9.47164
▁sub	-9.47346
▁70	-9.47428
▁loads	-9.47726
hey	-9.47795
▁dis	-9.4815
▁topic	-9.48358
▁thoughts	-9.4866
▁details	-9.48906
▁pay	-9.49042
irst	-9.49298
▁individuals	-9.49821
▁wear	-9.50592
work	-9.50624
ish	-9.50663
▁5	-9.51071
▁W	-9.51284
▁co	-9.51444
▁cadence	-9.51969
▁mechanism	-9.52022
▁pound	-9.5206
▁mi	-9.52697
▁step	-9.52993
▁Is	-9.53008
▁partner	-9.53039
▁tw	-9.53049
▁enhanc	-9.53174
▁develop	-9.53394
▁vertical	-9.53557
▁balance	-9.53586
▁determine	-9.53617
▁scientific	-9.5375
▁Momentous	-9.53774
▁Stanford	-9.53774
▁deciliter	-9.53774
▁evidence	-9.53774
▁monitor	-9.53774
▁opportunity	-9.53774
▁strategy	-9.53774
▁velocity	-9.53774
▁space	-9.53774
▁Clomid	-9.53775
▁nuclei	-9.53776
▁preference	-9.53776
▁reduction	-9.5378
▁serious	-9.53783
▁easily	-9.53788
▁sitting	-9.53801
▁rope	-9.53818
▁worry	-9.53823
▁suppose	-9.53838
▁cross	-9.53866
ether	-9.5388
▁alone	-9.53904
▁With	-9.53919
▁similar	-9.53925
▁Greens	-9.53982
▁promote	-9.54026
▁Of	-9.54109
▁vest	-9.54162
▁read	-9.54272
▁ball	-9.5432
▁comments	-9.54501
▁structure	-9.54513
▁isolate	-9.54555
▁fueling	-9.54749
▁75	-9.55285
▁arms	-9.55335
▁micro	-9.55543
tic	-9.55704
▁machines	-9.56276
▁At	-9.56304
▁ones	-9.56402
▁red	-9.56751
▁issues	-9.56824
▁ingest	-9.56955
▁usual	-9.57005
2	-9.57018
▁tests	-9.57292
at	-9.57493
hole	-9.57884
▁main	-9.582
▁forth	-9.58672
O	-9.59192
▁name	-9.59313
▁Tuesday	-9.59431
▁style	-9.59632
▁food	-9.59741
▁areas	-9.5981
▁class	-9.60032
it	-9.60168
▁shoulder	-9.60327
▁aspect	-9.60436
▁matters	-9.60591
▁prior	-9.60864
▁arm	-9.61157
▁An	-9.61172
▁adapt	-9.61211
▁regular	-9.61267
▁actual	-9.61283
▁public	-9.6139
▁activate	-9.61392
▁sign	-9.61414
▁basic	-9.61455
▁biomarkers	-9.61466
▁cascade	-9.61466
▁fundamental	-9.61466
▁laboratory	-9.61466
▁temperature	-9.61466
▁unquote	-9.61466
▁value	-9.61466
▁activities	-9.61467
▁Friday	-9.61467
▁impede	-9.61467
▁sunglasses	-9.61467
▁hubermanlab	-9.61468
▁occasional	-9.61469
▁neural	-9.61472
▁critical	-9.61473
▁quiz	-9.61479
▁guess	-9.61483
▁direction	-9.61488
▁supply	-9.61488
▁saturated	-9.61521
▁optimize	-9.61523
▁positi	-9.61525
▁margin	-9.61564
▁mechanical	-9.61564
▁sake	-9.61566
▁leave	-9.6162
▁correctly	-9.61718
h	-9.61913
▁extra	-9.61922
:00	-9.62039
▁fail	-9.62049
▁sprinting	-9.62219
▁along	-9.62262
age	-9.62342
▁none	-9.62343
▁hamstrings	-9.62403
▁testing	-9.62526
▁wide	-9.62629
▁patterns	-9.62687
ric	-9.62739
▁adding	-9.62767
▁sever	-9.62782
b	-9.62984
▁mechanisms	-9.63393
▁pounds	-9.63402
▁engage	-9.63404
▁prescribe	-9.63441
▁keeping	-9.63637
▁cam	-9.63686
▁preserve	-9.63721
muscular	-9.63749
▁5%	-9.64059
▁Mos	-9.64167
ant	-9.64194
ually	-9.64742
▁intervals	-9.64807
▁modifi	-9.65011
▁drugs	-9.65651
▁young	-9.65908
▁cut	-9.66134
▁achieve	-9.66148
ting	-9.66609
▁sweat	-9.67596
S	-9.67611
▁situation	-9.67928
▁split	-9.67994
▁extension	-9.68016
▁sponsor	-9.68033
▁guest	-9.68052
▁room	-9.68089
▁offset	-9.68667
▁speak	-9.69234
▁switch	-9.69334
▁explain	-9.69568
▁quick	-9.69584
▁indirect	-9.69609
ng	-9.69627
glasses	-9.69799
▁Dexa	-9.698
▁Shbg	-9.698
▁family	-9.698
▁medicine	-9.698
▁perfect	-9.698
▁activity	-9.698
▁claim	-9.698
▁MMA	-9.69801
▁jogging	-9.69801
▁pillows	-9.69801
▁cortisol	-9.69802
▁window	-9.69803
▁memory	-9.69807
▁hotel	-9.69811
▁Sometimes	-9.69816
▁soreness	-9.69818
▁hair	-9.69822
▁seated	-9.69836
▁hitting	-9.69853
▁Oh	-9.69856
▁argue	-9.69868
▁symptoms	-9.69898
▁fighters	-9.69905
▁share	-9.6992
▁cycling	-9.69927
▁itself	-9.69945
▁available	-9.69966
▁its	-9.69969
▁potentially	-9.69974
▁lean	-9.70011
▁indirectly	-9.70016
▁words	-9.70052
▁deal	-9.70071
▁amazing	-9.70081
▁epinephrine	-9.70146
▁personally	-9.70177
lease	-9.70331
▁learned	-9.70332
▁lats	-9.70465
▁pack	-9.70548
▁podcasts	-9.7058
▁glutes	-9.70656
mic	-9.70659
▁meet	-9.70749
▁arts	-9.70918
▁near	-9.70931
▁raises	-9.70965
▁principles	-9.70974
c	-9.71048
▁progressive	-9.71176
▁3	-9.7161
▁produce	-9.71757
▁topics	-9.72028
▁rare	-9.72256
▁increas	-9.72337
fully	-9.72593
▁favor	-9.72699
▁sprints	-9.7278
▁needed	-9.73118
▁doses	-9.73499
▁replace	-9.74783
▁Can	-9.75388
▁Every	-9.75656
went	-9.75663
▁hyper	-9.76115
6	-9.76266
0%	-9.76625
▁wor	-9.76787
x	-9.76794
▁exception	-9.77083
▁trial	-9.77155
▁outcome	-9.77248
▁h	-9.77729
5%	-9.77974
times	-9.78136
I	-9.78532
▁potential	-9.78701
▁repeat	-9.78726
▁Instagram	-9.78891
▁Interesting	-9.78891
▁Medicine	-9.78891
▁Spotify	-9.78891
▁literally	-9.78891
▁threshold	-9.78891
▁whatsoever	-9.78891
▁ketones	-9.78891
▁smoking	-9.78891
▁terribl	-9.78891
▁lactate	-9.78891
▁mistake	-9.78892
▁rosa	-9.78892
▁utilization	-9.78894
▁production	-9.78896
▁stability	-9.78897
▁equation	-9.78897
▁foot	-9.78901
▁advanced	-9.78902
▁dead	-9.78903
▁opposed	-9.78904
▁competition	-9.78909
▁heel	-9.78928
▁peer	-9.78945
▁st	-9.78948
▁activating	-9.78956
▁sick	-9.78967
▁anymore	-9.78973
▁forward	-9.78993
▁quadriceps	-9.78995
▁elevated	-9.79009
▁custom	-9.79027
▁slower	-9.79056
▁testes	-9.79067
▁insight	-9.79115
▁timing	-9.79138
▁significantly	-9.7919
▁gut	-9.79193
▁slowly	-9.79432
▁tendons	-9.79521
▁decide	-9.7953
▁shown	-9.797
▁following	-9.79706
▁assuming	-9.79713
▁shorten	-9.7974
▁tap	-9.79766
▁standing	-9.79819
▁greens	-9.8
▁Tw	-9.80138
▁units	-9.80188
▁45	-9.80362
▁sponsors	-9.80862
ive	-9.80944
▁flex	-9.81431
ga	-9.81505
stem	-9.8157
D	-9.81812
▁manage	-9.81954
▁ga	-9.82586
▁Where	-9.82768
▁face	-9.84254
▁organ	-9.84345
▁bones	-9.84939
get	-9.85101
▁familia	-9.86518
▁6	-9.86566
▁hang	-9.8671
▁practical	-9.86748
▁begin	-9.8683
▁implement	-9.86929
▁thousand	-9.8694
▁platform	-9.86943
T	-9.86982
▁chart	-9.87081
▁aesthetic	-9.87105
▁degree	-9.87107
▁suggest	-9.87129
▁reduc	-9.87603
ey	-9.87604
▁amounts	-9.87746
▁con	-9.88209
▁others	-9.88211
▁influence	-9.88303
▁cool	-9.88378
▁join	-9.88482
▁wonder	-9.88482
side	-9.88504
ck	-9.88576
▁according	-9.88651
▁proper	-9.88766
ical	-9.88813
▁foundation	-9.8885
▁box	-9.88865
▁Thursday	-9.88891
▁constant	-9.88891
▁efficiency	-9.88891
▁encourag	-9.88891
▁email	-9.88891
▁template	-9.88891
▁default	-9.88891
▁DNA	-9.88892
▁hurt	-9.88892
▁Strength	-9.88892
▁interference	-9.88894
▁weightlifting	-9.88894
▁music	-9.88894
▁nutrient	-9.88898
▁exertion	-9.88898
▁negative	-9.88899
▁local	-9.88901
▁plank	-9.88902
▁subjective	-9.88902
▁fatiguing	-9.88907
▁content	-9.88908
▁Apple	-9.88911
▁company	-9.88913
▁majority	-9.88918
▁lungs	-9.88931
▁40%	-9.8894
▁reality	-9.88947
▁flow	-9.88968
▁modify	-9.88981
▁progression	-9.88985
▁vital	-9.89041
▁intent	-9.89052
▁mortality	-9.89058
▁properly	-9.89079
▁necessary	-9.8908
▁drill	-9.89085
▁shorter	-9.89092
skeletal	-9.89196
▁neurons	-9.89196
▁vary	-9.89278
▁anyway	-9.89325
▁score	-9.89329
▁bi	-9.89444
▁showed	-9.8964
▁curls	-9.89748
▁entirely	-9.90016
▁cha	-9.90047
▁inside	-9.90057
▁fac	-9.90099
▁cases	-9.90141
artial	-9.90195
▁interventions	-9.90323
▁Neur	-9.90405
efore	-9.90493
▁huberman	-9.90495
▁growing	-9.90545
ry	-9.90564
ase	-9.90566
▁differentiate	-9.90831
erformance	-9.90904
not	-9.9092
▁gains	-9.90956
▁hands	-9.90962
▁Here	-9.91307
▁asking	-9.91382
stead	-9.91515
▁exhales	-9.91583
▁prefer	-9.9178
▁soon	-9.92076
ious	-9.92119
▁th	-9.92158
▁aromat	-9.92343
▁variations	-9.92585
ers	-9.92585
▁li	-9.92647
▁awa	-9.9271
u	-9.92727
▁bro	-9.92865
▁kinds	-9.93155
▁sits	-9.93304
▁bigge	-9.93348
p	-9.93554
ose	-9.9357
ur	-9.93653
▁spin	-9.93846
▁nutritional	-9.94313
ome	-9.94949
day	-9.95266
▁regulate	-9.95278
▁problems	-9.9577
id	-9.95858
i	-9.95948
▁lay	-9.96447
▁12	-9.96716
▁pain	-9.97223
ster	-9.97461
z	-9.97506
▁inhale	-9.97653
▁n	-9.97729
▁vitamin	-9.97905
▁professor	-9.98052
▁smartphone	-9.98149
▁pathway	-9.98154
▁dumbbell	-9.98191
▁7	-9.9822
▁pattern	-9.98235
▁snack	-9.9825
▁knee	-9.98278
▁role	-9.98304
sleep	-9.98409
ance	-9.98871
▁caus	-9.99139
▁x	-9.99164
▁interest	-9.99307
▁mot	-9.99578
▁8	-9.99813
▁immediate	-9.99814
nd	-9.99835
▁actin	-9.99911
▁connecti	-9.99966
▁restrict	-9.99991
▁TRT	-10
▁androgen	-10
▁basketball	-10
▁equipment	-10
▁fantastic	-10
▁fertility	-10
▁glycogen	-10
▁Podcast	-10
▁behavior	-10
▁stationary	-10
▁mouth	-10
▁atherosclerosis	-10
▁exceed	-10
▁intensities	-10
▁primarily	-10
▁psychological	-10
▁circulation	-10.0001
▁analyze	-10.0001
▁healthspan	-10.0001
▁breakdown	-10.0001
▁Dht	-10.0001
▁tolerate	-10.0001
▁rotation	-10.0001
▁built	-10.0003
▁desire	-10.0003
▁eventually	-10.0004
▁easier	-10.0004
▁Institute	-10.0004
▁track	-10.0004
▁secondary	-10.0005
▁stick	-10.0005
▁1%	-10.0006
▁10%	-10.0007
▁God	-10.0011
▁special	-10.0011
▁videos	-10.0013
▁older	-10.0013
▁peptides	-10.0013
▁extent	-10.0014
▁coaches	-10.0015
▁vo	-10.0017
▁efficient	-10.0021
▁represent	-10.0022
▁Probably	-10.0028
▁compared	-10.0028
▁report	-10.0037
▁waking	-10.0038
▁assume	-10.0039
▁required	-10.0041
▁adrenaline	-10.005
▁hip	-10.0064
ince	-10.0071
▁markers	-10.0076
▁aging	-10.0078
ility	-10.0094
▁reviewed	-10.0096
▁breathe	-10.01
inal	-10.01
▁needle	-10.0103
▁kids	-10.0106
▁acids	-10.0117
00	-10.0123
ative	-10.0139
▁lipids	-10.014
▁plan	-10.016
▁late	-10.0161
▁Go	-10.0196
▁degrees	-10.0203
▁aesthetics	-10.0204
f	-10.0207
▁imm	-10.0215
ping	-10.0224
▁playing	-10.0235
end	-10.0237
▁upon	-10.0273
arily	-10.0292
une	-10.0305
▁Any	-10.033
▁meat	-10.0413
▁direct	-10.0417
all	-10.0419
▁site	-10.0476
▁ton	-10.0599
sh	-10.0648
aught	-10.0671
hind	-10.0711
▁los	-10.0713
▁proteins	-10.0774
spit	-10.0823
▁prevent	-10.0832
called	-10.0976
tracker	-10.0977
hose	-10.0985
E	-10.0987
based	-10.0988
200	-10.0999
▁answers	-10.1019
obably	-10.1021
▁theme	-10.1021
▁bout	-10.1032
g	-10.1043
▁intervention	-10.1072
▁principle	-10.1073
▁raise	-10.1078
mino	-10.1108
▁weigh	-10.1158
▁book	-10.1159
▁nerve	-10.1193
▁relax	-10.1198
▁Thorn	-10.1214
▁compromise	-10.1226
▁involve	-10.1228
▁technical	-10.1231
▁frequent	-10.1231
▁final	-10.1231
▁essential	-10.1231
▁fix	-10.1236
▁accelerat	-10.1242
▁compare	-10.1245
▁sustain	-10.1247
▁combin	-10.1249
▁stabiliz	-10.125
▁Headspace	-10.125
▁afternoon	-10.125
▁appreciate	-10.125
▁beautiful	-10.125
▁business	-10.125
▁current	-10.125
▁feedback	-10.125
▁irrelevant	-10.125
▁menstrua	-10.125
▁musculature	-10.125
▁nowadays	-10.125
▁physician	-10.125
▁rodiol	-10.125
▁stomach	-10.125
▁trigger	-10.125
▁diabetes	-10.125
▁slightly	-10.125
▁glean	-10.125
▁ketogenic	-10.125
▁conscious	-10.125
▁stairwell	-10.125
▁therapies	-10.125
▁Hcg	-10.125
▁expertise	-10.125
▁fresh	-10.125
▁caffeine	-10.125
▁nature	-10.125
▁PRP	-10.125
▁complex	-10.125
▁frame	-10.125
▁stimuli	-10.125
▁uterus	-10.125
▁isolation	-10.1251
▁interpret	-10.1251
▁approved	-10.1252
▁death	-10.1252
▁ride	-10.1252
▁trick	-10.1252
▁angle	-10.1252
▁happy	-10.1252
▁weak	-10.1253
▁dep	-10.1254
▁agree	-10.1254
▁ultimately	-10.1254
▁calories	-10.1254
▁intense	-10.1255
▁excited	-10.1255
▁anaerobic	-10.1256
▁wild	-10.1256
▁poor	-10.1256
▁model	-10.1256
can	-10.1257
▁concerned	-10.1258
▁home	-10.1259
▁objective	-10.1259
▁left	-10.126
▁handle	-10.126
▁classes	-10.1262
▁male	-10.1262
▁truth	-10.1263
▁Sure	-10.1263
▁slide	-10.1268
▁technically	-10.127
▁generate	-10.127
niversit	-10.1277
▁liver	-10.1279
▁repeated	-10.128
▁spine	-10.1281
▁hormonal	-10.1282
▁Does	-10.1283
▁metabolomics	-10.1288
▁career	-10.129
ard	-10.1292
▁tremendously	-10.1296
▁roll	-10.1309
▁tension	-10.1316
▁balanced	-10.132
▁static	-10.1328
▁suppress	-10.1332
▁incline	-10.1346
▁traveling	-10.1346
▁runs	-10.1347
▁watch	-10.1347
▁targeting	-10.1354
▁bodybuilders	-10.1361
▁bridges	-10.1361
▁receptors	-10.1361
▁friends	-10.1361
▁physically	-10.1361
▁quads	-10.1362
▁experienced	-10.1363
▁nas	-10.1364
▁realized	-10.1364
▁14	-10.1377
▁beca	-10.138
▁scientists	-10.1384
icular	-10.1393
▁showers	-10.1409
▁mode	-10.1444
▁roles	-10.1453
▁bound	-10.1466
▁offer	-10.1467
▁si	-10.1488
hich	-10.1509
▁guests	-10.1525
▁extensions	-10.153
▁foods	-10.1545
▁brea	-10.1566
ntil	-10.158
▁joints	-10.1625
▁pass	-10.1632
tia	-10.1648
ted	-10.1674
▁contractil	-10.1686
▁base	-10.1708
▁baths	-10.171
▁systems	-10.174
cute	-10.1743
▁bind	-10.1769
▁becomes	-10.1864
▁event	-10.1905
▁rounds	-10.1938
cause	-10.1953
▁la	-10.1969
▁contain	-10.1992
▁Wh	-10.202
▁promot	-10.202
▁tri	-10.2061
▁mess	-10.2066
k	-10.2084
ize	-10.2086
▁trie	-10.21
▁define	-10.2121
nce	-10.2182
ten	-10.2285
wo	-10.2293
he	-10.2298
ia	-10.2335
huberman	-10.2449
ever	-10.246
L	-10.2466
▁female	-10.2495
▁consideration	-10.2496
▁component	-10.2497
▁twi	-10.2498
▁version	-10.25
▁hamstring	-10.2501
▁bicep	-10.2503
il	-10.2509
▁kick	-10.2524
▁lipid	-10.2525
▁shower	-10.2526
▁plane	-10.2532
▁le	-10.2533
▁equal	-10.2542
▁examples	-10.2552
ied	-10.2563
spect	-10.258
▁di	-10.258
ir	-10.2584
▁ho	-10.2639
▁18	-10.2644
▁record	-10.2653
▁honest	-10.2659
▁extensive	-10.2659
▁powerful	-10.2674
▁inject	-10.2676
▁MPA	-10.2679
▁SHPG	-10.2679
▁Supplements	-10.2679
▁Typically	-10.2679
▁crazy	-10.2679
▁dedicate	-10.2679
▁luteinizing	-10.2679
▁nanogram	-10.2679
▁oxygen	-10.2679
▁regimen	-10.2679
▁ampk	-10.2679
▁feature	-10.2679
▁hungry	-10.2679
▁nuance	-10.2679
▁return	-10.2679
▁teens	-10.2679
▁nucleus	-10.2679
▁job	-10.2679
▁remind	-10.2679
▁lightweight	-10.2679
▁diameter	-10.2679
▁indeed	-10.2679
▁decline	-10.268
▁relationship	-10.268
▁management	-10.268
▁trajectory	-10.268
▁internet	-10.268
▁assumption	-10.2681
▁LH	-10.2681
▁observed	-10.2681
▁plate	-10.2681
▁prevention	-10.2681
▁safety	-10.2682
▁story	-10.2682
▁programming	-10.2682
▁college	-10.2682
▁mood	-10.2683
▁discovered	-10.2683
▁potent	-10.2683
▁sooner	-10.2685
▁menu	-10.2686
▁transporter	-10.2686
▁50%	-10.2686
▁path	-10.2687
▁comfortable	-10.2687
▁sex	-10.2688
▁60%	-10.2688
▁tread	-10.2689
▁section	-10.2691
▁vast	-10.2692
▁oil	-10.2693
▁house	-10.2693
▁mixed	-10.2694
▁recently	-10.2695
▁consistently	-10.2695
▁continuously	-10.2695
▁responders	-10.2696
▁acetylcholine	-10.2696
▁lack	-10.2697
▁listeners	-10.2697
▁burn	-10.2697
eff	-10.2697
▁assess	-10.2698
▁continuing	-10.2698
▁Dan	-10.2703
▁team	-10.2705
▁sensitive	-10.2707
▁enter	-10.2707
▁mechanics	-10.271
reatine	-10.2712
▁stack	-10.2727
ig	-10.2733
▁meters	-10.2734
▁reasonable	-10.2742
▁rack	-10.2747
ery	-10.275
▁triceps	-10.2751
▁driver	-10.2752
▁briefly	-10.2753
▁parameters	-10.2779
▁figured	-10.2782
▁code	-10.2785
witch	-10.2786
▁adv	-10.2788
▁white	-10.2813
▁primar	-10.2829
▁purposes	-10.2836
▁sources	-10.2836
▁concentrat	-10.2843
▁biology	-10.2863
▁components	-10.2864
▁fill	-10.2867
▁synthe	-10.2872
▁On	-10.2913
▁fed	-10.2917
▁dumbbells	-10.292
▁rowing	-10.2952
▁band	-10.2961
▁improved	-10.2973
▁trials	-10.2977
▁steps	-10.3041
▁Lo	-10.3053
▁Ne	-10.3063
xactly	-10.3063
ine	-10.308
▁outcomes	-10.3083
▁Eve	-10.311
el	-10.313
▁gear	-10.3143
▁55	-10.3168
ology	-10.3175
▁falls	-10.3196
▁lock	-10.3196
▁spell	-10.3213
▁active	-10.322
ake	-10.3225
up	-10.3226
▁infinite	-10.3231
thing	-10.3253
▁accomplish	-10.3297
▁sat	-10.3309
▁Pe	-10.3383
ordin	-10.3448
ively	-10.3464
man	-10.3472
▁11	-10.3475
▁fan	-10.3503
▁nose	-10.3519
▁Man	-10.3542
▁met	-10.3569
▁cl	-10.3582
▁grows	-10.3584
▁lo	-10.3586
ault	-10.3605
aybe	-10.3657
▁ex	-10.366
hack	-10.3674
my	-10.3694
▁varie	-10.37
uck	-10.3705
▁waste	-10.375
▁responses	-10.3782
▁e	-10.3798
ave	-10.3814
▁fla	-10.3847
cy	-10.3871
nty	-10.3882
▁100%	-10.3942
R	-10.3949
of	-10.3955
▁stu	-10.3994
▁star	-10.4007
▁method	-10.4012
▁apo	-10.4023
▁en	-10.4065
▁tr	-10.41
de	-10.41
come	-10.4104
N	-10.4107
▁kettlebell	-10.4147
▁experiment	-10.4147
▁rise	-10.415
mill	-10.4156
▁purpose	-10.4163
▁State	-10.4164
▁scientist	-10.4166
▁source	-10.4168
▁acid	-10.4169
▁glute	-10.4169
▁statin	-10.4171
▁steroid	-10.4173
▁comment	-10.4181
eady	-10.4192
▁sigh	-10.4199
gardless	-10.4201
▁pi	-10.4217
▁refer	-10.4223
▁kid	-10.4228
▁unit	-10.4232
▁tea	-10.4238
▁optimiz	-10.4251
▁molecul	-10.4265
▁overlap	-10.4273
▁Whi	-10.4277
sure	-10.4283
and	-10.4317
▁adequate	-10.4321
ready	-10.4324
▁recent	-10.4327
▁continuous	-10.4327
▁multi	-10.4345
▁HRT	-10.4345
▁NSDR	-10.4345
▁Saturday	-10.4345
▁Twitter	-10.4345
▁attempt	-10.4345
▁categories	-10.4345
▁combat	-10.4345
▁emotional	-10.4345
▁endogenous	-10.4345
▁enzyme	-10.4345
▁garbage	-10.4345
▁intermediate	-10.4345
▁laboratories	-10.4345
▁monohydrate	-10.4345
▁opinion	-10.4345
▁parachute	-10.4345
▁parallel	-10.4345
▁phrase	-10.4345
▁probiotic	-10.4345
▁Levels	-10.4345
▁clarity	-10.4345
▁account	-10.4345
▁decrease	-10.4345
▁impair	-10.4345
▁interrupt	-10.4345
▁doctor	-10.4345
▁ApoB	-10.4345
▁explanation	-10.4345
▁nonetheless	-10.4345
▁picture	-10.4345
▁textbook	-10.4345
▁delay	-10.4346
▁HDL	-10.4346
▁Prize	-10.4346
▁smart	-10.4346
▁Anivar	-10.4346
▁strategies	-10.4346
▁dangerous	-10.4346
▁dopamine	-10.4346
▁weightlifters	-10.4346
▁impressive	-10.4346
▁respiration	-10.4346
▁Would	-10.4346
▁floor	-10.4346
▁percent	-10.4346
▁placebo	-10.4346
▁contour	-10.4346
▁funny	-10.4346
▁Sarcoplas	-10.4346
▁center	-10.4346
▁Lane	-10.4346
▁strict	-10.4346
▁alert	-10.4346
▁decision	-10.4347
▁obsess	-10.4347
▁osteopenia	-10.4347
▁afterwards	-10.4347
▁living	-10.4347
▁chance	-10.4347
▁consistent	-10.4347
▁Wow	-10.4347
▁consumer	-10.4347
▁spacing	-10.4348
▁reverse	-10.4348
▁acceleration	-10.4348
▁myosin	-10.4348
▁permission	-10.4348
▁fluid	-10.4348
▁thumb	-10.435
▁flight	-10.4351
▁scientifically	-10.4351
▁published	-10.4352
▁missed	-10.4353
▁selection	-10.4353
▁smoker	-10.4353
▁school	-10.4353
▁exploring	-10.4353
▁curve	-10.4354
▁stressful	-10.4356
▁clean	-10.4357
the	-10.4358
▁strain	-10.4359
▁teacher	-10.4359
▁appro	-10.436
ertainly	-10.436
▁atrophy	-10.4362
▁sample	-10.4363
dependent	-10.4365
▁electrolytes	-10.4365
eop	-10.4368
▁seeking	-10.4368
▁24	-10.437
▁Other	-10.437
lipoprotein	-10.4371
▁wise	-10.4373
dynamic	-10.4374
▁toolkit	-10.4376
▁injections	-10.4376
▁ahead	-10.4378
▁nootropic	-10.4382
▁upright	-10.4382
▁minus	-10.4382
▁suggested	-10.4382
▁rower	-10.4383
▁suggestion	-10.4385
▁fold	-10.4388
▁recreational	-10.4391
▁frequently	-10.4394
▁edge	-10.4397
▁captions	-10.4398
▁resources	-10.4398
▁triglycerides	-10.44
▁swa	-10.4401
▁divide	-10.4403
▁normally	-10.4406
▁Brit	-10.4408
▁identif	-10.441
▁exert	-10.4418
▁element	-10.4424
▁ligaments	-10.4432
▁conditions	-10.4437
▁incredible	-10.4438
▁ray	-10.4442
▁More	-10.4443
▁bo	-10.4457
▁vascular	-10.4458
▁insult	-10.4464
▁developing	-10.4473
▁kill	-10.4474
▁reduced	-10.4475
▁happened	-10.4476
rett	-10.4482
▁gone	-10.4482
ell	-10.4486
▁experts	-10.4496
▁80	-10.4505
▁mid	-10.451
▁statins	-10.4524
▁contracting	-10.4525
▁States	-10.453
oph	-10.4533
▁input	-10.4537
▁spit	-10.4548
▁programs	-10.4556
▁note	-10.4556
▁females	-10.4567
▁knowing	-10.4589
▁asked	-10.4595
ird	-10.4598
▁horse	-10.46
▁included	-10.4602
▁Whe	-10.4604
▁knees	-10.4627
▁nerves	-10.4631
▁neurotic	-10.4638
lo	-10.4652
ess	-10.467
body	-10.4672
meri	-10.469
ke	-10.4692
▁cli	-10.4694
▁exceptions	-10.4701
▁splits	-10.4733
▁innervate	-10.4758
▁meals	-10.4797
▁cadences	-10.4802
▁hell	-10.483
lly	-10.4842
▁associate	-10.4846
▁brace	-10.4864
▁rough	-10.4865
ick	-10.4865
▁table	-10.4876
▁arrive	-10.4877
▁gra	-10.4886
bel	-10.4892
▁overhea	-10.4917
▁rules	-10.4933
▁Ma	-10.4968
ch	-10.5011
▁150	-10.5013
ory	-10.5048
ast	-10.5072
▁differently	-10.5075
▁states	-10.5107
▁weekly	-10.514
▁realm	-10.5198
▁l	-10.5221
chool	-10.5233
lso	-10.5234
ach	-10.5261
▁fa	-10.5263
way	-10.5294
▁parad	-10.5337
▁ha	-10.5344
ter	-10.5346
▁ramp	-10.54
▁intention	-10.5401
▁regulat	-10.5415
H	-10.5429
▁bir	-10.5533
5	-10.5555
ut	-10.5567
▁act	-10.5586
▁o	-10.5655
am	-10.5663
▁lat	-10.5683
▁awar	-10.5732
ctively	-10.5734
▁functional	-10.5767
▁dip	-10.5791
▁expose	-10.5791
sible	-10.5994
70	-10.6008
arch	-10.6025
ational	-10.6026
imately	-10.6053
ically	-10.6086
biology	-10.6087
greens	-10.6092
verse	-10.6093
▁ages	-10.6101
▁gene	-10.6106
▁crossover	-10.613
▁mo	-10.6134
lie	-10.6151
qui	-10.6151
▁scenario	-10.6154
▁hundred	-10.6154
ssuming	-10.616
▁quad	-10.6163
▁receptor	-10.6164
▁bridge	-10.6164
▁expert	-10.6164
▁bodybuilder	-10.6165
▁curl	-10.6169
▁metric	-10.6172
▁improvement	-10.6179
ac	-10.6192
own	-10.6195
▁friend	-10.6201
▁professional	-10.6217
▁sum	-10.6235
▁dive	-10.6262
imer	-10.6278
▁sh	-10.6284
▁inter	-10.6287
▁bio	-10.6311
▁syn	-10.6311
▁pa	-10.6317
▁global	-10.6322
▁bulk	-10.6327
▁du	-10.6327
▁transport	-10.6335
▁inhibit	-10.6335
▁physiologic	-10.6336
▁disrupt	-10.6343
▁120	-10.6344
▁safe	-10.6344
▁ACM	-10.6345
▁BPC	-10.6345
▁Cavaliere	-10.6345
▁EPA	-10.6345
▁InsideTracker	-10.6345
▁Remember	-10.6345
▁calcium	-10.6345
▁circuit	-10.6345
▁cognition	-10.6345
▁dementia	-10.6345
▁detrimental	-10.6345
▁diagnosis	-10.6345
▁exogenous	-10.6345
▁livemomentous	-10.6345
▁marathon	-10.6345
▁physique	-10.6345
▁pituitary	-10.6345
▁playlist	-10.6345
▁prevalen	-10.6345
▁scapula	-10.6345
▁soccer	-10.6345
▁success	-10.6345
▁surprising	-10.6345
▁unusual	-10.6345
▁Element	-10.6345
▁erectors	-10.6345
▁estimat	-10.6345
▁landscape	-10.6345
▁mechanistic	-10.6345
▁straight	-10.6345
▁sunlight	-10.6345
▁visual	-10.6345
▁snatch	-10.6345
▁suffer	-10.6345
▁tolerance	-10.6345
▁urine	-10.6345
▁capture	-10.6345
▁definition	-10.6345
▁random	-10.6345
▁arousal	-10.6345
▁Exercise	-10.6346
▁length	-10.6346
▁felt	-10.6346
▁depression	-10.6346
▁benchpress	-10.6346
▁breakfast	-10.6346
▁academic	-10.6346
▁percentile	-10.6346
▁neuroplasticity	-10.6346
▁resilience	-10.6346
▁illness	-10.6346
▁swimming	-10.6346
▁spread	-10.6346
▁effic	-10.6346
▁distress	-10.6346
▁description	-10.6346
▁status	-10.6346
▁Muscle	-10.6346
▁education	-10.6346
▁adrenal	-10.6346
▁backcasting	-10.6346
▁otherwise	-10.6346
▁lunch	-10.6346
▁empty	-10.6346
▁desk	-10.6346
▁physiologist	-10.6347
▁grab	-10.6347
▁taste	-10.6347
▁argument	-10.6347
▁habit	-10.6347
▁AMA	-10.6347
▁execution	-10.6347
▁screw	-10.6347
▁brake	-10.6347
▁clarify	-10.6347
▁market	-10.6348
▁tighter	-10.6348
▁neurological	-10.6348
▁suddenly	-10.6348
▁timestamped	-10.6348
▁Mtor	-10.6348
▁gap	-10.6349
▁180	-10.6349
▁Dame	-10.6349
▁predictor	-10.6349
▁New	-10.6349
▁Actually	-10.635
▁mentality	-10.635
▁calori	-10.635
▁describing	-10.635
▁community	-10.6351
▁massive	-10.6351
▁above	-10.6351
▁lens	-10.6351
▁undulating	-10.6352
▁invest	-10.6352
▁Totally	-10.6352
ouble	-10.6353
▁mix	-10.6353
▁via	-10.6353
▁pace	-10.6354
▁tightly	-10.6355
▁Take	-10.6356
▁exhaling	-10.6356
▁worse	-10.6356
▁dying	-10.6357
▁elevate	-10.6357
▁safer	-10.6358
▁shake	-10.6358
▁excessive	-10.636
▁boxes	-10.6361
▁naturally	-10.6361
▁alive	-10.6362
▁missing	-10.6364
▁option	-10.6369
▁carries	-10.6369
▁domains	-10.637
▁circumstances	-10.637
▁joke	-10.637
▁injured	-10.6371
▁adherence	-10.6372
▁texting	-10.6372
▁biological	-10.6372
▁spen	-10.6373
▁extensively	-10.6375
▁honestly	-10.6375
▁somehow	-10.6377
▁shoot	-10.6379
tor	-10.638
▁compromised	-10.6386
▁fift	-10.639
▁solve	-10.6392
▁exercising	-10.6399
▁sprinter	-10.6406
▁stable	-10.6408
▁average	-10.6408
▁journ	-10.6408
▁maximally	-10.6411
▁recommendations	-10.6411
▁view	-10.6412
SC	-10.6412
▁Star	-10.643
▁u	-10.6431
▁starch	-10.6432
▁relaxing	-10.6432
▁action	-10.6435
▁detailed	-10.6443
▁catch	-10.6452
▁applications	-10.6452
ost	-10.6462
▁mu	-10.6464
▁finished	-10.6466
ree	-10.648
▁hedg	-10.6483
▁miles	-10.6484
▁damaged	-10.6486
▁Have	-10.6486
▁stores	-10.6486
▁speaking	-10.6488
▁Wel	-10.6497
▁sympathetic	-10.6498
▁math	-10.65
unch	-10.6525
▁respond	-10.6532
egardless	-10.6534
30	-10.6544
rew	-10.6548
▁cons	-10.6559
vice	-10.6571
▁competiti	-10.6572
▁facilitate	-10.6575
▁completed	-10.6596
▁tear	-10.6601
cin	-10.6605
▁gate	-10.661
▁versions	-10.6621
▁anti	-10.6656
▁va	-10.6669
▁remov	-10.6672
▁serve	-10.6672
▁pathways	-10.6704
▁smartphones	-10.6704
ne	-10.6707
▁counting	-10.6713
▁plans	-10.6723
▁inhales	-10.6725
▁organs	-10.6728
▁functioning	-10.6739
▁charts	-10.6739
▁Ou	-10.6743
▁sque	-10.6751
ld	-10.6758
rich	-10.6763
▁gastr	-10.6776
▁events	-10.6816
▁acclimat	-10.6817
▁counter	-10.6826
▁aside	-10.683
▁100%.	-10.6873
▁tra	-10.6901
ike	-10.6909
▁nail	-10.693
▁eyes	-10.6948
hanging	-10.6983
generati	-10.6995
▁rea	-10.7043
▁occurs	-10.7062
ure	-10.7083
▁execute	-10.7089
pid	-10.71
▁efforts	-10.716
▁decades	-10.716
▁incorporat	-10.7186
▁Be	-10.7226
▁links	-10.723
▁tip	-10.7256
▁lines	-10.7309
▁app	-10.7317
oke	-10.7382
▁prescripti	-10.7388
▁elev	-10.7395
▁nei	-10.7401
nger	-10.7404
▁pet	-10.7427
yne	-10.7428
uscular	-10.7524
ning	-10.7526
▁possib	-10.7534
▁prepare	-10.7558
▁mon	-10.7583
ate	-10.7617
ot	-10.7666
▁fi	-10.7707
pe	-10.7712
▁exc	-10.7714
ons	-10.7786
ill	-10.7795
▁ti	-10.7801
▁dial	-10.7809
▁tissues	-10.783
ancy	-10.7834
▁ma	-10.787
▁resting	-10.7885
▁trans	-10.7897
▁gen	-10.7898
▁conversations	-10.794
ear	-10.8003
ow	-10.8004
ions	-10.8013
▁300	-10.8018
if	-10.8023
▁manag	-10.8023
alized	-10.8033
▁preserv	-10.8085
▁da	-10.8131
▁introduc	-10.8141
point	-10.8167
other	-10.8237
▁art	-10.8256
imal	-10.8275
▁concentrati	-10.8279
▁induc	-10.8283
aw	-10.8312
▁expect	-10.8319
pin	-10.8334
▁ple	-10.8357
gate	-10.8381
ingly	-10.8394
pt	-10.8415
▁door	-10.8418
ities	-10.8435
▁gi	-10.844
C	-10.8452
▁ev	-10.8506
▁nor	-10.8516
till	-10.8525
identical	-10.8565
LDL	-10.8572
ited	-10.8577
60	-10.8582
100	-10.8583
unds	-10.8619
▁ingredient	-10.8627
▁cylinder	-10.8628
▁percentage	-10.8629
▁decen	-10.8631
▁ge	-10.8632
▁sho	-10.8633
▁route	-10.8636
G	-10.8642
▁reproduc	-10.8645
▁guideline	-10.8645
▁million	-10.8649
▁requirement	-10.8656
▁connection	-10.8659
▁ju	-10.866
▁parameter	-10.8662
▁dosage	-10.8664
▁marker	-10.8669
lab	-10.867
3	-10.8671
▁Cal	-10.8673
▁pushup	-10.8678
tten	-10.8678
▁gu	-10.8678
▁store	-10.8702
▁rap	-10.8704
▁gram	-10.8719
ather	-10.8722
▁land	-10.8735
▁clinic	-10.8743
▁mile	-10.8746
▁divid	-10.8764
▁tendon	-10.8764
▁Ar	-10.8767
got	-10.8789
▁figur	-10.879
▁im	-10.8801
▁choos	-10.8812
▁compar	-10.8818
▁natural	-10.8825
econd	-10.8833
▁injure	-10.8837
▁distract	-10.8839
bviously	-10.8839
▁abdom	-10.884
ts	-10.8843
▁except	-10.8844
CS	-10.8845
▁differ	-10.8845
▁swim	-10.8845
▁Bulgarian	-10.8845
▁Hypertrophy	-10.8845
▁PMS	-10.8845
▁PSI	-10.8845
▁Richard	-10.8845
▁Sauna	-10.8845
▁Science	-10.8845
▁accommodate	-10.8845
▁availability	-10.8845
▁background	-10.8845
▁backpack	-10.8845
▁central	-10.8845
▁clomid	-10.8845
▁convenien	-10.8845
▁document	-10.8845
▁dramatic	-10.8845
▁horrible	-10.8845
▁indicator	-10.8845
▁intuitive	-10.8845
▁kilogram	-10.8845
▁libido	-10.8845
▁macronutrient	-10.8845
▁membrane	-10.8845
▁obesity	-10.8845
▁oxidati	-10.8845
▁periphery	-10.8845
▁plyometrics	-10.8845
▁profile	-10.8845
▁puberty	-10.8845
▁reassuring	-10.8845
▁remarkable	-10.8845
▁segment	-10.8845
▁spectrum	-10.8845
▁speculate	-10.8845
▁straightforward	-10.8845
▁substantial	-10.8845
▁Basically	-10.8845
▁Dusk	-10.8845
▁energetic	-10.8845
▁fashion	-10.8845
▁fraction	-10.8845
▁heavily	-10.8845
▁limb	-10.8845
▁scheme	-10.8845
▁symptomatic	-10.8845
▁APO	-10.8845
▁Meaning	-10.8845
▁future	-10.8845
▁girl	-10.8845
▁history	-10.8845
▁midsection	-10.8845
▁studied	-10.8845
▁vegan	-10.8845
▁Norton	-10.8845
▁child	-10.8845
▁audience	-10.8845
▁baseball	-10.8845
▁neuroscientist	-10.8845
▁debate	-10.8846
▁shape	-10.8846
▁explosiveness	-10.8846
▁groceries	-10.8846
▁transition	-10.8846
▁organism	-10.8846
▁2.4	-10.8846
▁enrich	-10.8846
▁medical	-10.8846
▁blind	-10.8846
▁clinician	-10.8846
▁gymnast	-10.8846
▁follicle	-10.8846
▁Gonads	-10.8846
▁incentiv	-10.8846
▁informative	-10.8846
▁injuries	-10.8846
▁fruit	-10.8846
▁precisely	-10.8846
▁summaries	-10.8846
▁hammer	-10.8846
▁borrow	-10.8846
▁bottle	-10.8846
▁suspect	-10.8846
▁loud	-10.8846
▁narrow	-10.8846
▁Testosterone	-10.8846
▁preparation	-10.8846
▁sentences	-10.8846
▁plasticity	-10.8846
▁location	-10.8846
▁inflammation	-10.8846
▁dude	-10.8846
▁expression	-10.8846
▁freedom	-10.8846
▁disservice	-10.8847
▁pump	-10.8847
▁repair	-10.8847
▁surgery	-10.8847
▁Really	-10.8847
▁perspective	-10.8847
▁lazy	-10.8847
▁Rosa	-10.8847
▁functionality	-10.8848
▁pool	-10.8848
▁vitality	-10.8848
▁advice	-10.8848
▁unilateral	-10.8848
▁pharmacology	-10.8848
▁predispos	-10.8848
▁confiden	-10.8848
▁realistic	-10.8848
▁package	-10.8848
▁rigor	-10.8848
▁osteoporosis	-10.8848
▁acne	-10.8849
▁flip	-10.8849
▁complain	-10.8849
▁mindset	-10.8849
▁phenotype	-10.8849
▁translate	-10.8849
▁38	-10.885
▁adhere	-10.8851
▁recall	-10.8851
▁distinction	-10.8851
▁steer	-10.8851
▁backwards	-10.8851
▁Look	-10.8852
▁reserve	-10.8852
▁rising	-10.8852
▁posture	-10.8852
▁bas	-10.8852
▁distraction	-10.8852
▁synthesize	-10.8853
▁crush	-10.8854
▁Will	-10.8854
▁anecdata	-10.8855
charge	-10.8856
▁bounc	-10.8856
▁established	-10.8856
ics	-10.8856
▁inhibitor	-10.8856
▁fsh	-10.8856
▁helpful	-10.8857
▁attend	-10.8857
▁firing	-10.8859
▁exam	-10.8859
▁accelerator	-10.8859
▁treatment	-10.886
▁Whatever	-10.8861
▁elsewhere	-10.8861
▁oneself	-10.8862
▁speaker	-10.8862
▁mentor	-10.8863
▁collected	-10.8864
▁stair	-10.8864
▁lighter	-10.8866
▁bodybuilding	-10.8867
▁pul	-10.8868
▁rehab	-10.8868
▁agent	-10.8871
▁apply	-10.8871
▁1000	-10.8872
▁Thesis	-10.8873
tual	-10.8874
▁law	-10.8874
▁peeves	-10.8875
▁draw	-10.8876
▁clips	-10.8877
▁plateaus	-10.8877
▁interfere	-10.8878
▁eaten	-10.8878
▁wish	-10.8879
▁road	-10.8882
▁chain	-10.8882
▁fastest	-10.8883
▁season	-10.8884
▁explod	-10.8885
▁attack	-10.8887
▁useful	-10.8894
▁powerfully	-10.89
cale	-10.8901
bo	-10.8902
▁writ	-10.8907
▁checkout	-10.8909
▁visit	-10.8917
▁gosh	-10.8917
▁skin	-10.8918
▁rodeo	-10.8918
▁regularly	-10.8919
▁hills	-10.8919
▁Make	-10.8921
▁explained	-10.8921
▁Thorne	-10.8923
avel	-10.893
▁demands	-10.8932
▁named	-10.8934
▁lute	-10.8937
▁correlat	-10.8937
▁parent	-10.894
book	-10.8949
▁lipoprotein	-10.897
▁optimized	-10.8972
▁challenged	-10.8982
▁meditations	-10.8986
▁Pellets	-10.8986
▁consequences	-10.8986
▁languages	-10.8986
▁products	-10.8993
▁isometrics	-10.9002
▁findings	-10.9002
▁format	-10.9003
▁influenc	-10.9006
▁tease	-10.9009
▁meant	-10.9021
▁switching	-10.9021
go	-10.9025
▁physiologically	-10.9032
▁dosages	-10.9041
▁requirements	-10.9042
▁blow	-10.9057
controlled	-10.9071
▁individualize	-10.9082
▁height	-10.9082
ny	-10.9085
▁sent	-10.9092
▁must	-10.9095
▁hundreds	-10.9097
▁scenarios	-10.9097
▁falling	-10.9127
▁chronic	-10.9133
▁partners	-10.9134
▁upgrad	-10.9136
loating	-10.915
▁lying	-10.9161
▁theory	-10.9192
▁genes	-10.9202
▁30.	-10.9206
▁considerations	-10.9209
▁mesh	-10.9229
▁Pri	-10.9233
tary	-10.9236
▁spher	-10.9239
▁creat	-10.9292
▁che	-10.9302
hat	-10.9306
nder	-10.931
flate	-10.9324
▁suggests	-10.9339
▁Bo	-10.937
ated	-10.9382
ile	-10.9383
pping	-10.9383
▁sterol	-10.9401
▁pitch	-10.9411
ilateral	-10.9414
▁calls	-10.9414
▁mill	-10.9415
kept	-10.9418
▁net	-10.9431
ge	-10.9434
cepti	-10.944
setting	-10.9456
▁tracker	-10.9465
▁situations	-10.9482
▁Ri	-10.9485
ay	-10.9491
ittle	-10.9493
▁hop	-10.9494
iam	-10.9508
uring	-10.9532
▁styles	-10.9533
ub	-10.9534
elly	-10.9598
gging	-10.9621
▁compressi	-10.964
▁Thanks	-10.9644
▁thesis	-10.9655
▁covers	-10.9665
▁fly	-10.9677
ma	-10.9696
▁collect	-10.9707
▁fire	-10.9727
ole	-10.9747
mous	-10.9759
▁combinations	-10.9811
▁humans	-10.9859
▁deadlifts	-10.9871
▁grad	-10.9878
ception	-10.9901
ency	-10.9902
▁loading	-10.9911
▁easie	-10.9912
ich	-10.9913
line	-10.9914
▁environments	-10.9919
▁alt	-10.9926
building	-10.9927
rate	-10.9929
▁cur	-10.9947
▁throws	-10.9955
ni	-10.9963
▁ro	-10.9984
▁designate	-11.0038
▁17	-11.005
▁ski	-11.0058
▁unt	-11.0062
▁techniques	-11.0082
ody	-11.0082
▁lifts	-11.0104
eague	-11.011
ze	-11.0115
▁news	-11.0125
▁kit	-11.0166
lands	-11.0167
ating	-11.0174
▁pres	-11.0202
ately	-11.0214
ra	-11.0304
▁Should	-11.0321
▁consist	-11.0323
▁dia	-11.0337
▁convince	-11.0347
mor	-11.0364
so	-11.0402
▁bu	-11.045
led	-11.0458
▁af	-11.0459
rs	-11.0472
om	-11.0474
pical	-11.0481
ego	-11.0495
▁choices	-11.0507
istic	-11.0509
▁insert	-11.0543
aid	-11.0553
avi	-11.0586
oli	-11.0591
alm	-11.0592
ople	-11.0593
bably	-11.06
▁pe	-11.0627
xie	-11.0651
▁Cr	-11.067
▁err	-11.0671
ix	-11.0677
▁points	-11.0717
▁accomplishe	-11.0743
do	-11.075
actical	-11.0765
▁aim	-11.0796
going	-11.0821
ying	-11.0823
dio	-11.0824
▁fl	-11.0873
ization	-11.0892
▁skateboard	-11.0896
mate	-11.0899
uster	-11.0925
▁formula	-11.0926
▁bl	-11.0929
ox	-11.0968
rous	-11.0987
▁stimulat	-11.1021
▁kne	-11.1053
v	-11.1109
▁excu	-11.1126
▁consum	-11.1135
▁AS	-11.114
mething	-11.1143
▁execut	-11.1163
▁ad	-11.117
▁clos	-11.1175
alms	-11.1193
▁colle	-11.1204
▁em	-11.1209
▁clu	-11.1209
▁sc	-11.1219
oken	-11.1228
▁Fin	-11.123
ght	-11.125
▁ab	-11.1255
4	-11.1275
▁walks	-11.1291
gestion	-11.1325
sisted	-11.1328
lighted	-11.1342
▁contro	-11.1354
▁40.	-11.1358
▁lin	-11.1372
▁La	-11.1385
ain	-11.1398
hree	-11.1419
10	-11.1427
▁notes	-11.1448
llows	-11.1466
ol	-11.1528
▁min	-11.156
nstead	-11.1564
mmun	-11.1568
ame	-11.1571
▁k	-11.1636
▁Co	-11.1641
gic	-11.1646
▁250	-11.1657
▁hydrate	-11.166
versi	-11.168
▁subt	-11.1712
tion	-11.1725
health	-11.1749
▁Di	-11.1752
▁ob	-11.178
▁unl	-11.1784
load	-11.1802
hear	-11.1807
ability	-11.1831
▁ar	-11.1865
ID	-11.1869
▁ne	-11.1869
1	-11.1886
igh	-11.1887
▁knows	-11.1899
appropriate	-11.1904
kg	-11.1905
B	-11.1906
sympathetic	-11.1912
▁qu	-11.1913
drop	-11.1913
▁logic	-11.1923
portion	-11.1926
▁condition	-11.1931
▁Wa	-11.1937
▁black	-11.1942
state	-11.1945
▁layoff	-11.1961
▁intr	-11.1966
▁mis	-11.1971
▁metabolite	-11.1982
▁Mov	-11.1985
▁language	-11.1986
▁isometric	-11.1986
▁meditation	-11.1987
▁consequence	-11.1987
▁Pellet	-11.1987
▁application	-11.1991
▁ligament	-11.1993
▁tricep	-11.1995
j	-11.2005
▁Ra	-11.2009
▁bond	-11.2009
ular	-11.201
rnal	-11.2023
▁bag	-11.203
ult	-11.2031
ily	-11.2033
pro	-11.2034
Y	-11.2041
fter	-11.2049
▁oral	-11.2059
▁product	-11.2059
▁releas	-11.2077
▁remove	-11.2092
▁analys	-11.2097
▁wa	-11.21
ecision	-11.2108
▁endocrin	-11.2113
▁fist	-11.2119
▁maximiz	-11.2126
ocate	-11.2132
▁axi	-11.2133
▁gas	-11.2133
ginal	-11.2135
▁text	-11.214
▁concern	-11.2156
ual	-11.2159
▁saturat	-11.216
▁obvious	-11.216
▁smoke	-11.2163
▁interact	-11.2165
aerobic	-11.2165
▁argu	-11.2168
▁sometime	-11.2169
▁para	-11.217
right	-11.2172
▁plastic	-11.2178
▁65	-11.2178
▁atherosclero	-11.2178
chemistry	-11.2179
knowledge	-11.2179
▁endotheli	-11.2179
homboids	-11.2179
incidence	-11.2179
insulinemia	-11.2179
lutide	-11.2179
▁ABS	-11.2179
▁ADHD	-11.2179
▁Columbia	-11.2179
▁Desmond	-11.2179
▁Estrogen	-11.2179
▁Europe	-11.2179
▁Fahrenheit	-11.2179
▁Fullerton	-11.2179
▁Incredible	-11.2179
▁Livemomentous	-11.2179
▁Patrick	-11.2179
▁acquisition	-11.2179
▁alcohol	-11.2179
▁anxiety	-11.2179
▁augment	-11.2179
▁biomechanics	-11.2179
▁brutal	-11.2179
▁buzz	-11.2179
▁capsules	-11.2179
▁carnivore	-11.2179
▁chaperone	-11.2179
▁clavicles	-11.2179
▁condensed	-11.2179
▁conjugate	-11.2179
▁dinner	-11.2179
▁discomfort	-11.2179
▁distinguish	-11.2179
▁disturbance	-11.2179
▁emphasis	-11.2179
▁enantomer	-11.2179
▁equivalent	-11.2179
▁expensive	-11.2179
▁hidden	-11.2179
▁horizontal	-11.2179
▁hydration	-11.2179
▁hydrophilic	-11.2179
▁incorrectly	-11.2179
▁jerk	-11.2179
▁mitochondria	-11.2179
▁neglect	-11.2179
▁obligations	-11.2179
▁observation	-11.2179
▁phenomenon	-11.2179
▁philosophical	-11.2179
▁ponytail	-11.2179
▁profound	-11.2179
▁project	-11.2179
▁proponent	-11.2179
▁quarter	-11.2179
▁retention	-11.2179
▁reticulum	-11.2179
▁rhythm	-11.2179
▁serotonin	-11.2179
▁sneak	-11.2179
▁sodium	-11.2179
▁species	-11.2179
▁staggering	-11.2179
▁syndrome	-11.2179
▁tunnel	-11.2179
▁valuable	-11.2179
▁venture	-11.2179
▁website	-11.2179
▁Direct	-11.2179
▁fingertip	-11.2179
▁legitim	-11.2179
▁robust	-11.2179
▁secrete	-11.2179
▁winner	-11.2179
▁beyond	-11.2179
▁dimension	-11.2179
▁accident	-11.2179
▁accru	-11.2179
▁unfit	-11.2179
ambigu	-11.2179
▁Fitness	-11.2179
▁impossible	-11.2179
▁Adrenals	-11.2179
▁Mattress	-11.2179
▁sweet	-11.2179
▁PEC	-11.2179
▁proceed	-11.2179
▁thorough	-11.2179
▁particles	-11.2179
▁thyro	-11.2179
▁integr	-11.2179
▁Strong	-11.2179
▁awesome	-11.2179
▁formulations	-11.2179
▁sequence	-11.2179
▁excitement	-11.2179
▁airport	-11.2179
▁football	-11.2179
▁index	-11.2179
▁attenuat	-11.2179
▁boundaries	-11.2179
▁interview	-11.2179
▁psychology	-11.2179
▁swimmer	-11.2179
iguing	-11.2179
▁Ideally	-11.2179
▁devote	-11.2179
▁biochemistry	-11.2179
▁investigat	-11.2179
▁recognize	-11.2179
▁ankle	-11.2179
▁midline	-11.2179
▁recip	-11.2179
▁mirror	-11.2179
▁stopped	-11.2179
▁Sorry	-11.2179
▁kickback	-11.2179
▁motivation	-11.2179
▁helix	-11.2179
▁rotat	-11.2179
▁nettle	-11.2179
▁indication	-11.2179
▁1.6	-11.2179
▁communication	-11.2179
▁aggression	-11.218
▁address	-11.218
▁tired	-11.218
▁crude	-11.218
▁problematic	-11.218
onomical	-11.218
▁downloadable	-11.218
▁smooth	-11.218
▁momentum	-11.218
▁31	-11.218
▁modality	-11.218
▁Anna	-11.218
▁Roka	-11.218
▁farmer	-11.218
▁investment	-11.218
▁valve	-11.218
▁presumably	-11.218
▁stiff	-11.218
sterified	-11.218
▁headline	-11.218
▁Could	-11.218
▁boundary	-11.218
▁takeaway	-11.218
▁chamber	-11.218
▁eliminate	-11.2181
▁variability	-11.2181
▁supersetting	-11.2181
▁shock	-11.2181
▁sorry	-11.2181
▁stimulant	-11.2181
▁forearm	-11.2181
▁manipulation	-11.2181
▁confidence	-11.2181
▁toilet	-11.2181
▁thicker	-11.2182
▁device	-11.2182
▁Canada	-11.2182
▁turnover	-11.2182
▁tailor	-11.2182
▁occurring	-11.2182
▁boring	-11.2182
▁announce	-11.2182
▁yoga	-11.2182
▁Association	-11.2182
▁disruption	-11.2182
▁redistribution	-11.2183
▁planned	-11.2183
▁ruck	-11.2183
▁Therefore	-11.2183
▁label	-11.2183
▁physiotherap	-11.2183
▁ovari	-11.2183
▁optimization	-11.2183
▁Generally	-11.2184
▁Hop	-11.2184
▁presented	-11.2184
▁hinge	-11.2184
▁beginner	-11.2184
▁weakest	-11.2184
▁hiking	-11.2184
▁anecdotally	-11.2184
▁powerlifting	-11.2184
▁preload	-11.2185
▁ass	-11.2185
▁actionable	-11.2185
▁Anyway	-11.2185
▁ovaries	-11.2185
▁iron	-11.2186
▁urinate	-11.2186
▁steep	-11.2186
▁Rather	-11.2187
▁abdomen	-11.2187
▁inherent	-11.2187
▁strive	-11.2187
▁astrozole	-11.2188
peaking	-11.2188
▁addictive	-11.2189
der	-11.2189
cial	-11.219
▁blunt	-11.219
▁pursuit	-11.219
▁exte	-11.219
▁boom	-11.219
▁country	-11.2191
▁fascinating	-11.2192
▁powdered	-11.2192
▁confer	-11.2192
▁modulate	-11.2193
▁surprised	-11.2194
rote	-11.2195
▁whack	-11.2195
modulator	-11.2195
▁movers	-11.2195
▁patel	-11.2196
▁effectiveness	-11.2197
partment	-11.2197
▁jumpers	-11.2198
▁abilities	-11.2198
▁impress	-11.2198
▁deprived	-11.2199
▁momentous	-11.2199
▁Heart	-11.2202
▁grand	-11.2202
▁warmup	-11.2203
▁delts	-11.2203
▁preparing	-11.2203
▁loop	-11.2204
▁quicker	-11.2204
▁trauma	-11.2204
▁stage	-11.2208
▁auto	-11.2209
▁wrapp	-11.2212
▁mtor	-11.2216
▁biopsies	-11.2224
▁adaptogens	-11.2225
▁calipers	-11.2225
▁burpees	-11.2225
▁phytosterols	-11.2225
▁gum	-11.2231
▁subjects	-11.2233
▁2000	-11.2234
▁deliver	-11.2234
▁weird	-11.2234
▁compet	-11.2235
▁dominant	-11.2236
▁rice	-11.2236
▁supplie	-11.2237
▁wins	-11.2238
▁proof	-11.2238
▁leap	-11.2238
▁invi	-11.2239
olution	-11.224
▁born	-11.2241
▁2.7	-11.2243
▁online	-11.2245
▁mark	-11.2245
▁fortunate	-11.2246
▁CBD	-11.2247
▁modafinil	-11.2247
▁evaluate	-11.2247
▁plug	-11.2247
▁patch	-11.2247
▁Iron	-11.2248
▁accurate	-11.2248
▁220	-11.2249
▁fixed	-11.2249
▁lifters	-11.2251
▁sustained	-11.2254
▁intern	-11.2255
pido	-11.2262
810	-11.2267
▁chair	-11.2268
board	-11.2268
▁onset	-11.2269
ific	-11.2271
productive	-11.2271
▁sack	-11.2273
▁freak	-11.2276
▁inches	-11.2278
▁inform	-11.2278
▁refuel	-11.2279
▁manipulat	-11.2285
enfe	-11.2285
▁Par	-11.2288
▁inverse	-11.2289
mission	-11.229
▁capabilit	-11.2293
▁vertically	-11.2296
▁Men	-11.2297
▁students	-11.2302
▁computers	-11.2303
▁deltoids	-11.2304
▁caution	-11.2311
▁bull	-11.2312
▁previously	-11.2313
▁inhaler	-11.2313
read	-11.2316
▁activated	-11.2316
▁mice	-11.2317
▁collective	-11.2319
▁former	-11.2322
▁mine	-11.2326
▁square	-11.2346
▁appear	-11.2347
ptic	-11.2347
▁deriv	-11.2347
▁operate	-11.2347
zing	-11.235
▁appropriately	-11.2365
▁Ha	-11.2372
▁She	-11.2373
▁metabolites	-11.2381
▁lateral	-11.2383
tra	-11.2387
▁stretched	-11.2392
alth	-11.241
▁bored	-11.2411
▁recommended	-11.2414
▁cry	-11.2415
▁23	-11.2422
▁mats	-11.2446
▁linked	-11.2451
logical	-11.2455
▁millions	-11.2462
▁guidelines	-11.2464
▁connections	-11.2465
▁ran	-11.2469
▁ag	-11.2474
▁considered	-11.2474
▁overlapp	-11.2478
▁communit	-11.2478
erman	-11.2479
▁released	-11.2481
▁ta	-11.2489
▁recovered	-11.2495
▁Exc	-11.2501
▁convert	-11.2506
▁dips	-11.251
ip	-11.2517
tension	-11.2537
▁nap	-11.255
apping	-11.2555
▁imag	-11.2558
▁ve	-11.2561
▁mil	-11.2563
▁Fed	-11.2575
co	-11.2576
▁horses	-11.258
▁identical	-11.2583
▁deadlifting	-11.2596
▁Talk	-11.2607
▁shot	-11.2612
stand	-11.2619
▁enhanced	-11.2619
stre	-11.262
▁experiments	-11.2625
▁kettlebells	-11.2625
▁steroids	-11.263
▁Da	-11.2634
ro	-11.2645
.2	-11.2646
▁statistical	-11.2648
ify	-11.2652
▁sp	-11.2654
▁word	-11.2665
tral	-11.2667
▁prim	-11.2699
li	-11.2703
▁dense	-11.2703
▁pressing	-11.2705
▁87	-11.2713
▁planes	-11.2719
▁Don	-11.2728
▁cr	-11.273
▁maint	-11.2743
▁Ro	-11.2755
▁Positi	-11.2756
eurotransmission	-11.276
▁books	-11.2768
▁closed	-11.2771
ence	-11.2779
ups	-11.2785
▁cryo	-11.279
▁qual	-11.2812
▁recovering	-11.2817
▁po	-11.2829
la	-11.2863
▁professors	-11.2864
ff	-11.2875
ified	-11.29
▁platforms	-11.2946
▁thousands	-11.2947
▁universal	-11.2961
oka	-11.2978
▁begins	-11.299
▁Hav	-11.3013
▁highlight	-11.3025
▁sle	-11.3035
ught	-11.3048
tice	-11.3096
▁na	-11.3108
▁operat	-11.3125
▁task	-11.3173
▁names	-11.3188
▁finding	-11.3199
erti	-11.3207
350	-11.3209
log	-11.3211
▁fasting	-11.3218
lf	-11.323
▁meditate	-11.3236
▁reference	-11.3268
▁ch	-11.3274
▁becom	-11.3275
▁ship	-11.3277
aving	-11.3281
his	-11.3281
▁positioning	-11.329
25	-11.3307
▁utiliz	-11.331
entially	-11.3315
▁expos	-11.3316
old	-11.3338
▁fields	-11.3342
▁stressors	-11.3345
▁north	-11.3407
itud	-11.3418
▁papers	-11.3419
ague	-11.3434
self	-11.3458
▁labs	-11.3541
pha	-11.355
opping	-11.3569
▁demonstrate	-11.3577
ood	-11.3609
▁aff	-11.3619
▁string	-11.3637
cken	-11.3646
▁Ru	-11.3686
efully	-11.3765
▁ill	-11.3768
eric	-11.3801
place	-11.3805
▁tight	-11.381
▁squatt	-11.3815
▁tactic	-11.3824
ns	-11.3855
▁compounds	-11.3895
▁Nor	-11.3898
▁allud	-11.3913
▁sand	-11.3927
▁sou	-11.3939
▁fr	-11.3941
▁sl	-11.3945
▁normalize	-11.3946
▁gr	-11.3954
▁minim	-11.3967
llowing	-11.397
▁routines	-11.3973
ep	-11.3985
▁achiev	-11.4028
▁sus	-11.4045
▁protect	-11.406
▁lum	-11.4124
▁Ca	-11.4138
▁Thes	-11.414
▁faste	-11.4151
im	-11.4178
men	-11.4189
rt	-11.4216
lying	-11.4222
rain	-11.4223
▁fee	-11.4226
sel	-11.4268
▁psych	-11.427
▁possibl	-11.4283
libra	-11.4288
mp	-11.4301
▁interna	-11.4308
▁hearing	-11.4314
▁27	-11.4335
▁par	-11.4345
▁cred	-11.4347
ette	-11.4368
pob	-11.4384
ption	-11.4401
ely	-11.441
▁alternat	-11.4411
▁kn	-11.4412
ainly	-11.4428
▁Rod	-11.4468
talin	-11.4471
▁lore	-11.4477
ient	-11.4489
ud	-11.4531
▁measures	-11.4535
ail	-11.4553
▁hi	-11.4573
▁cycles	-11.4578
referred	-11.4587
▁breaks	-11.4611
▁pat	-11.4615
▁Y	-11.4634
ide	-11.4665
▁places	-11.4696
▁Col	-11.4707
ations	-11.4756
rv	-11.4783
eplenish	-11.4825
▁tib	-11.4825
season	-11.483
▁infrequent	-11.4845
un	-11.4849
amy	-11.4879
▁precis	-11.4885
rary	-11.4901
▁vi	-11.4905
alities	-11.5022
ab	-11.5081
▁pulls	-11.5114
ors	-11.5125
12	-11.5128
▁protecti	-11.5134
ppy	-11.5135
▁cane	-11.5137
ew	-11.5172
cast	-11.5226
lad	-11.5228
▁react	-11.5244
▁ideas	-11.5289
▁cares	-11.529
kins	-11.531
▁communicate	-11.5336
▁applicab	-11.5421
▁twe	-11.5432
ause	-11.5441
tive	-11.5494
ling	-11.5517
▁bin	-11.552
ford	-11.5553
iz	-11.5559
▁song	-11.5564
▁pleas	-11.5598
ka	-11.5598
iff	-11.5603
▁flag	-11.563
cite	-11.5645
▁ba	-11.5651
▁bow	-11.5697
▁engag	-11.5737
▁produc	-11.5738
lus	-11.5741
sively	-11.575
atch	-11.5776
▁wi	-11.5794
▁separat	-11.5851
▁cra	-11.5909
fied	-11.5918
ids	-11.5919
▁Res	-11.5935
rious	-11.5952
▁var	-11.5953
ttle	-11.5956
▁measur	-11.5978
don	-11.5988
rformance	-11.6002
tch	-11.6026
rmal	-11.6046
▁sca	-11.6054
atic	-11.6059
▁positions	-11.6096
▁continu	-11.6107
rage	-11.6202
low	-11.6226
0,	-11.6265
▁practic	-11.6325
7	-11.6383
▁ver	-11.6383
▁war	-11.6419
ial	-11.6428
row	-11.6431
ged	-11.6432
▁pen	-11.6435
▁clot	-11.6436
▁Har	-11.6437
▁Bra	-11.644
▁statistic	-11.6456
ese	-11.6466
veral	-11.6493
ened	-11.6499
hi	-11.6512
by	-11.652
▁Stu	-11.6553
illi	-11.6558
op	-11.6568
leep	-11.6575
iv	-11.6605
▁isolat	-11.6613
yna	-11.6629
ver	-11.663
▁dec	-11.6666
ward	-11.6669
▁imagin	-11.6672
thesis	-11.6677
ensive	-11.6688
▁provid	-11.669
ote	-11.6696
▁wo	-11.6708
▁phospho	-11.671
▁sun	-11.6718
off	-11.672
▁equ	-11.6726
izing	-11.6737
▁Clinic	-11.6758
term	-11.6773
ncy	-11.6779
bility	-11.6781
ends	-11.6791
▁rates	-11.6792
▁fe	-11.6802
astrozol	-11.6824
bit	-11.6845
F	-11.6853
▁lea	-11.6857
▁AM	-11.6867
cycle	-11.6868
fine	-11.6875
▁boo	-11.688
ible	-11.6881
umb	-11.6881
M	-11.6888
▁touche	-11.6891
front	-11.6902
adrenaline	-11.6911
reviewed	-11.6911
▁Health	-11.6912
position	-11.6913
150	-11.6915
units	-11.6917
▁demand	-11.6923
epinephrine	-11.6925
room	-11.6944
▁disc	-11.6945
score	-11.6945
▁PDF	-11.696
offer	-11.6969
▁designat	-11.6974
▁deltoid	-11.6979
urance	-11.698
brace	-11.698
▁student	-11.6981
dog	-11.6983
mazing	-11.699
▁computer	-11.6993
some	-11.6994
▁resource	-11.6994
▁triglyceride	-11.6994
▁metabolomic	-11.6996
imilar	-11.6997
▁Green	-11.7
▁jack	-11.7
▁caption	-11.7
gues	-11.7003
ferred	-11.7011
▁cautio	-11.7014
▁hel	-11.7018
looked	-11.7018
trained	-11.7019
▁recommendation	-11.7024
land	-11.7025
▁Bri	-11.7027
ham	-11.7031
east	-11.7039
ication	-11.7072
▁Sam	-11.7083
▁solv	-11.7094
roll	-11.7095
▁mini	-11.7099
mag	-11.71
▁significan	-11.7102
▁depriv	-11.7105
▁injur	-11.7109
▁balanc	-11.712
▁carb	-11.7126
▁wrap	-11.7127
▁hill	-11.7133
meters	-11.7136
▁multipl	-11.7139
▁slid	-11.7141
▁comfortabl	-11.7144
▁sens	-11.7147
▁purchase	-11.7151
▁adopt	-11.7152
▁accept	-11.7154
▁surprise	-11.7154
▁cru	-11.7154
▁establish	-11.7155
▁publish	-11.7156
▁powder	-11.7157
errific	-11.7157
▁hypertroph	-11.7159
▁ultimate	-11.716
▁complicate	-11.7161
▁Total	-11.7162
SA	-11.7163
▁compute	-11.7165
▁initiate	-11.7166
▁distinct	-11.7167
ren	-11.7168
▁predict	-11.7168
aturated	-11.7168
steoporosis	-11.7172
pecial	-11.7172
distribution	-11.7174
▁critic	-11.7174
ionships	-11.7175
▁excit	-11.7175
obic	-11.7175
▁hypo	-11.7176
arlier	-11.7176
▁volu	-11.7176
holesterol	-11.7176
atigue	-11.7177
▁inflammat	-11.7177
▁educat	-11.7177
dispos	-11.7177
▁express	-11.7177
▁corticostero	-11.7177
▁redistribut	-11.7177
▁narr	-11.7177
ctors	-11.7179
Prefontaine	-11.7179
▁anticipat	-11.7179
▁degradat	-11.7179
relevant	-11.7179
▁epidemiolog	-11.7179
▁exquisite	-11.7179
▁overwhelming	-11.7179
▁oxidiz	-11.7179
cholesterolemia	-11.7179
counterintuitive	-11.7179
glycemic	-11.7179
okinetic	-11.7179
riathlon	-11.7179
rinkeelement	-11.7179
unsaturated	-11.7179
ysplasia	-11.7179
▁Aidsleep	-11.7179
▁Astrozole	-11.7179
▁Australia	-11.7179
▁Bagley	-11.7179
▁Bowling	-11.7179
▁Desmol	-11.7179
▁Desmondrol	-11.7179
▁English	-11.7179
▁Fantastic	-11.7179
▁GPC	-11.7179
▁HIIT	-11.7179
▁Intensity	-11.7179
▁NFL	-11.7179
▁Newsletter	-11.7179
▁Physiologist	-11.7179
▁Robert	-11.7179
▁Sherington	-11.7179
▁Supplementation	-11.7179
▁World	-11.7179
▁accommodating	-11.7179
▁accumulati	-11.7179
▁acetylCoA	-11.7179
▁agonists	-11.7179
▁ameliorate	-11.7179
▁amplif	-11.7179
▁attributes	-11.7179
▁authentic	-11.7179
▁autophagy	-11.7179
▁billionaire	-11.7179
▁biopsy	-11.7179
▁blades	-11.7179
▁buckets	-11.7179
▁byproduct	-11.7179
▁caffeinate	-11.7179
▁categorically	-11.7179
▁characteristics	-11.7179
▁circle	-11.7179
▁collaborat	-11.7179
▁commitment	-11.7179
▁concrete	-11.7179
▁contribut	-11.7179
▁credentialed	-11.7179
▁cyborg	-11.7179
▁destroy	-11.7179
▁dietitian	-11.7179
▁disclaimer	-11.7179
▁dominating	-11.7179
▁elbow	-11.7179
▁empirically	-11.7179
▁endeavors	-11.7179
▁epigenom	-11.7179
▁expanding	-11.7179
▁exponential	-11.7179
▁flashes	-11.7179
▁fluctuate	-11.7179
▁genotype	-11.7179
▁glaucoma	-11.7179
▁guarantee	-11.7179
▁hallmark	-11.7179
▁homeostasis	-11.7179
▁hydroph	-11.7179
▁hyperplasia	-11.7179
▁hypogonadal	-11.7179
▁iScience	-11.7179
▁imbalance	-11.7179
▁immense	-11.7179
▁incompeten	-11.7179
▁innovat	-11.7179
▁intellectual	-11.7179
▁internationally	-11.7179
▁intimidat	-11.7179
▁lifestyle	-11.7179
▁lozenges	-11.7179
▁magnitude	-11.7179
▁maneuver	-11.7179
▁microbiome	-11.7179
▁musculoskeletal	-11.7179
▁oatmeal	-11.7179
▁omnivore	-11.7179
▁opportunities	-11.7179
▁osteocalcin	-11.7179
▁oxandrolone	-11.7179
▁peripheral	-11.7179
▁philosophy	-11.7179
▁pivot	-11.7179
▁pocket	-11.7179
▁pregnancy	-11.7179
▁pregnant	-11.7179
▁procedure	-11.7179
▁quadrant	-11.7179
▁racquetball	-11.7179
▁rebound	-11.7179
▁reflect	-11.7179
▁refreshed	-11.7179
▁regrip	-11.7179
▁salivary	-11.7179
▁sciatica	-11.7179
▁scoop	-11.7179
▁simultaneously	-11.7179
▁speculating	-11.7179
▁struggle	-11.7179
▁struggling	-11.7179
▁technologies	-11.7179
▁teenager	-11.7179
▁unbelievabl	-11.7179
▁uncomfortable	-11.7179
▁undergraduate	-11.7179
▁underwater	-11.7179
▁unprecedented	-11.7179
▁medium	-11.7179
▁ratchet	-11.7179
▁surface	-11.7179
▁vacation	-11.7179
zetami	-11.7179
▁Connecti	-11.7179
▁McM	-11.7179
▁asterisk	-11.7179
▁comparison	-11.7179
▁constraint	-11.7179
▁headphones	-11.7179
▁hybrid	-11.7179
▁microbiot	-11.7179
▁outrageous	-11.7179
▁reflex	-11.7179
▁semigluti	-11.7179
▁simplicity	-11.7179
▁truisms	-11.7179
▁ultra	-11.7179
▁underappreciat	-11.7179
▁whimper	-11.7179
▁dexa	-11.7179
▁poison	-11.7179
▁shrink	-11.7179
▁vigor	-11.7179
▁Statin	-11.7179
▁gastroc	-11.7179
▁gentlem	-11.7179
▁gyneco	-11.7179
▁myoglob	-11.7179
dmittedly	-11.7179
▁affect	-11.7179
▁billion	-11.7179
▁dogma	-11.7179
▁Clearly	-11.7179
▁admir	-11.7179
▁0.1	-11.7179
▁Women	-11.7179
▁endometrium	-11.7179
▁genomics	-11.7179
▁quotient	-11.7179
▁mutant	-11.7179
neurotransmitter	-11.7179
▁Adduct	-11.7179
▁collapse	-11.7179
▁distort	-11.7179
▁thorne	-11.7179
▁kidney	-11.7179
▁tackle	-11.7179
▁York	-11.7179
▁blank	-11.7179
▁dusk	-11.7179
▁antagoni	-11.7179
▁decompress	-11.7179
▁nonsense	-11.7179
▁buffer	-11.7179
ooms	-11.7179
▁corner	-11.7179
▁polite	-11.7179
▁England	-11.7179
▁chitch	-11.7179
▁Duke	-11.7179
▁dampen	-11.7179
▁endothelium	-11.7179
▁summarize	-11.7179
▁frontier	-11.7179
▁Tonga	-11.7179
▁Likewise	-11.7179
▁autops	-11.7179
▁morbidity	-11.7179
▁Desmorol	-11.7179
▁Games	-11.7179
▁niche	-11.7179
▁roca	-11.7179
▁derivative	-11.7179
▁proteomic	-11.7179
ggle	-11.7179
▁tedious	-11.7179
ramer	-11.7179
▁Shorte	-11.718
▁condu	-11.718
▁Chance	-11.718
▁converge	-11.718
vasoconstriction	-11.718
▁engineering	-11.718
▁hospital	-11.718
▁fidojia	-11.718
▁govern	-11.718
▁stupid	-11.718
▁specialist	-11.718
▁fanatic	-11.718
elimina	-11.718
▁extract	-11.718
▁object	-11.718
▁shirt	-11.718
▁accent	-11.718
▁hypothalamus	-11.718
▁confusion	-11.718
▁keto	-11.718
▁contrary	-11.718
▁cipionate	-11.718
225	-11.718
▁breadth	-11.718
▁corticosterone	-11.718
▁platelet	-11.718
CT	-11.7181
▁3.0	-11.7181
▁parked	-11.7181
▁specialize	-11.7181
▁accessible	-11.7181
▁mobility	-11.7181
▁cliche	-11.7181
▁recap	-11.7181
▁appeal	-11.7181
▁27%	-11.7181
▁club	-11.7181
pendicular	-11.7181
▁layman	-11.7181
▁urge	-11.7181
▁Theoretically	-11.7181
▁plasma	-11.7181
▁polic	-11.7181
▁sperm	-11.7181
cture	-11.7182
▁fractures	-11.7182
▁miraculous	-11.7182
▁cuff	-11.7182
▁hypothesi	-11.7182
▁realizing	-11.7182
▁popular	-11.7182
▁Fair	-11.7182
▁protection	-11.7182
▁propri	-11.7182
stolic	-11.7182
▁brisk	-11.7182
▁Lower	-11.7182
01	-11.7182
▁gam	-11.7182
▁Neck	-11.7182
▁Autoregulation	-11.7182
ansas	-11.7183
▁OCS	-11.7183
▁1230	-11.7183
▁crash	-11.7183
▁responsive	-11.7183
▁teasing	-11.7183
▁luck	-11.7183
▁pedal	-11.7184
▁obey	-11.7184
▁knock	-11.7184
▁additive	-11.7184
▁sword	-11.7184
▁unrelated	-11.7184
▁invite	-11.7184
fibula	-11.7184
▁painful	-11.7184
▁elongat	-11.7185
▁triple	-11.7185
▁inhibition	-11.7185
▁exhausted	-11.7185
welve	-11.7185
▁bank	-11.7185
▁puff	-11.7186
▁analogy	-11.7186
▁fitter	-11.7186
▁strike	-11.7186
▁pisto	-11.7186
▁stopping	-11.7186
constrained	-11.7186
▁pill	-11.7186
▁irradiati	-11.7186
▁spotter	-11.7187
▁compan	-11.7187
▁insightful	-11.7187
ident	-11.7187
▁quantity	-11.7187
▁quietly	-11.7187
▁Over	-11.7187
▁Third	-11.7187
▁submer	-11.7187
▁specta	-11.7187
chol	-11.7188
▁operator	-11.7188
▁8%	-11.7188
▁emp	-11.7189
▁65%	-11.7189
▁2.0	-11.7189
▁rattled	-11.7189
▁queue	-11.7189
▁Flo	-11.7189
▁26	-11.719
▁belie	-11.719
ety	-11.719
epend	-11.719
▁depleted	-11.7191
▁increment	-11.7191
▁creative	-11.7191
▁fib	-11.7191
▁consequen	-11.7191
▁spoken	-11.7191
▁beaut	-11.7191
▁2006	-11.7191
▁oversight	-11.7192
▁statement	-11.7192
▁MD	-11.7193
▁peter	-11.7193
unting	-11.7194
▁prioritize	-11.7194
▁guide	-11.7194
ealand	-11.7194
▁headache	-11.7195
▁zoo	-11.7195
▁PR	-11.7196
▁North	-11.7196
▁rail	-11.7197
▁enhancement	-11.7198
▁unlikely	-11.7198
▁cheating	-11.7199
wards	-11.72
▁preferred	-11.72
▁overreac	-11.72
▁addicti	-11.7202
▁interaction	-11.7202
alpin	-11.7202
▁journal	-11.7203
dilation	-11.7203
endall	-11.7204
▁receiver	-11.7204
▁accepted	-11.7204
▁resistant	-11.7204
▁layer	-11.7205
hanges	-11.7205
▁glid	-11.7205
▁adopted	-11.7206
▁wreck	-11.7206
▁purchased	-11.7207
▁weaker	-11.7208
yosin	-11.7208
▁audi	-11.7209
▁vegeta	-11.721
vity	-11.721
▁strap	-11.7211
▁Training	-11.7212
▁tail	-11.7214
ockey	-11.7215
▁freeze	-11.7215
▁vaso	-11.7215
▁initiated	-11.7215
▁gasp	-11.7216
▁cruis	-11.7216
▁priv	-11.7217
▁1200	-11.7218
her	-11.7219
mitted	-11.7219
uge	-11.7219
lated	-11.722
AP	-11.7223
▁pursu	-11.7225
▁abundant	-11.7226
▁thro	-11.7229
▁sink	-11.7232
▁prep	-11.7233
▁bulky	-11.7234
▁Clom	-11.7234
▁rigid	-11.7235
▁blast	-11.7237
ecuti	-11.7238
▁broader	-11.7239
▁swings	-11.724
▁demanding	-11.7242
▁publication	-11.7243
▁brand	-11.7243
▁bearing	-11.7247
num	-11.7247
ination	-11.7248
▁originate	-11.7248
▁globally	-11.725
▁lunge	-11.7251
▁punt	-11.7251
rows	-11.7251
▁Sport	-11.7253
dder	-11.7253
▁sensing	-11.7257
cg	-11.7259
▁Skips	-11.7259
▁carbon	-11.7259
▁deadlines	-11.726
▁ovulates	-11.7261
▁wrestlers	-11.7261
erated	-11.7262
▁adequately	-11.7265
▁restriction	-11.7265
▁uptake	-11.7267
▁hence	-11.7267
▁perce	-11.7267
▁measurement	-11.7269
▁muster	-11.7273
gene	-11.7274
▁undergo	-11.7275
▁reset	-11.7275
▁sur	-11.7275
▁weekend	-11.7278
ag	-11.7279
ition	-11.7279
▁Gr	-11.7285
▁recorded	-11.7287
endocrinologist	-11.7287
nda	-11.7289
▁Only	-11.7291
45	-11.7292
▁landing	-11.7293
▁office	-11.7296
▁tech	-11.7298
▁scripts	-11.7298
gen	-11.7299
▁modified	-11.7299
▁understood	-11.73
▁cream	-11.73
uline	-11.7301
▁finally	-11.7304
▁everywhere	-11.7304
▁poly	-11.7306
▁thermo	-11.7306
▁salt	-11.7307
▁Sh	-11.7308
▁def	-11.7309
▁moder	-11.7313
▁approaches	-11.7316
▁sweaty	-11.7319
▁electron	-11.732
▁initia	-11.7321
rude	-11.7326
▁upsets	-11.7326
▁accordingly	-11.7327
▁intended	-11.733
▁nuts	-11.7333
ring	-11.7334
rials	-11.7335
▁pathologic	-11.7344
▁wondered	-11.7346
▁pho	-11.7348
ssociation	-11.7349
▁tab	-11.7351
▁Ax	-11.7352
▁budd	-11.7353
▁kin	-11.7354
aries	-11.7357
ratify	-11.7359
oogle	-11.7361
▁St	-11.7364
▁pasta	-11.7373
▁race	-11.7378
▁limite	-11.7378
vel	-11.7381
▁summar	-11.7382
anoma	-11.7386
▁analyst	-11.7388
riphasic	-11.739
▁Fi	-11.7395
▁miss	-11.7396
▁tasks	-11.7398
▁nicely	-11.7398
▁present	-11.74
▁apart	-11.7401
▁ref	-11.7402
▁PDFs	-11.7402
▁adapted	-11.7403
measurable	-11.7405
▁independently	-11.7406
▁motivat	-11.7409
▁pills	-11.7414
▁cate	-11.7428
▁ri	-11.7433
eries	-11.7434
clu	-11.7435
▁discs	-11.7438
▁determined	-11.7443
ower	-11.7446
▁uter	-11.7449
▁bags	-11.7451
▁cognitively	-11.7451
▁mother	-11.7454
▁neuron	-11.7469
isten	-11.7471
▁sac	-11.7473
▁pun	-11.7475
▁fists	-11.7476
▁highe	-11.7477
axing	-11.748
▁bonds	-11.7486
rill	-11.749
▁intersect	-11.749
ensities	-11.7494
▁periodiz	-11.7498
▁Per	-11.7502
▁cooling	-11.7514
▁es	-11.7522
▁superset	-11.7523
▁highlights	-11.7524
sistance	-11.7526
▁severe	-11.7529
▁cor	-11.7533
▁inability	-11.754
▁tran	-11.754
▁opt	-11.7545
▁layoffs	-11.7546
▁ring	-11.7554
▁seat	-11.7554
▁board	-11.7554
▁devi	-11.7556
▁card	-11.7558
ived	-11.7561
uff	-11.7562
EO	-11.7566
now	-11.7568
▁Her	-11.7569
▁Lot	-11.7581
▁socially	-11.7585
tting	-11.7603
▁Hard	-11.761
▁processed	-11.7614
▁page	-11.7615
▁productive	-11.7615
yman	-11.763
ushing	-11.7632
▁blocker	-11.7635
ega	-11.7638
riding	-11.7641
▁replicate	-11.7642
vid	-11.7643
▁forever	-11.7644
▁coal	-11.7646
▁phosphor	-11.767
▁routes	-11.7673
▁kg	-11.7677
▁cylinders	-11.7691
▁percentages	-11.7692
▁ingredients	-11.7692
▁ripp	-11.7692
▁cal	-11.7695
▁lipoproteins	-11.7696
▁log	-11.7707
▁crow	-11.7712
▁bore	-11.7723
▁methodolog	-11.7723
tations	-11.7725
▁Ga	-11.7733
▁apoa	-11.7735
MR	-11.7736
▁Die	-11.7741
7.	-11.7762
▁paus	-11.7763
▁scar	-11.7763
▁professionals	-11.7766
▁sighs	-11.7781
▁applie	-11.7785
espi	-11.7786
▁kink	-11.7789
▁treating	-11.7816
▁boy	-11.7828
itation	-11.7833
▁ben	-11.7835
▁crossovers	-11.7836
achy	-11.7841
ously	-11.7841
▁abs	-11.786
▁Push	-11.7861
dom	-11.787
imply	-11.7886
onary	-11.7895
▁tier	-11.7899
therapy	-11.7927
▁rises	-11.7931
...	-11.7932
▁scre	-11.7973
nlike	-11.7989
pacing	-11.7993
▁ec	-11.8008
▁chu	-11.8018
▁groov	-11.8026
illip	-11.8045
▁updat	-11.8053
▁liste	-11.807
▁lap	-11.8076
rank	-11.808
amine	-11.8087
pr	-11.8087
▁evo	-11.8094
anned	-11.8097
ended	-11.8109
▁recycle	-11.8115
ficiency	-11.8117
ba	-11.8129
▁exhausti	-11.8137
▁original	-11.8139
▁wak	-11.8145
▁controll	-11.815
ony	-11.8172
hydrated	-11.8185
nie	-11.8203
▁leav	-11.8211
▁disre	-11.8216
▁15.	-11.8216
uch	-11.8223
epuls	-11.8228
▁shed	-11.8229
▁visi	-11.8233
enter	-11.8243
ath	-11.8244
atso	-11.8271
mon	-11.832
▁interm	-11.832
da	-11.8323
▁te	-11.8345
▁demonstrat	-11.8359
▁ster	-11.8363
▁readi	-11.8373
rk	-11.8379
▁convers	-11.8392
▁inch	-11.8408
▁vitamins	-11.8413
▁worr	-11.8415
▁gla	-11.8416
lity	-11.8431
▁ham	-11.8456
▁beast	-11.846
▁magnif	-11.8463
▁implements	-11.8471
expected	-11.8486
▁Mur	-11.85
lip	-11.8527
rgic	-11.8538
▁bene	-11.8555
▁trainer	-11.8559
▁labor	-11.8563
nish	-11.8575
▁dropp	-11.8589
▁des	-11.8602
ise	-11.8616
▁slam	-11.8616
nis	-11.8616
clus	-11.8624
▁stance	-11.8626
tract	-11.8646
▁stre	-11.8669
▁rode	-11.8691
▁parti	-11.8696
▁su	-11.8711
▁har	-11.8717
nit	-11.8722
▁barbe	-11.8735
▁wind	-11.8736
▁ordered	-11.8748
▁famili	-11.8768
▁reache	-11.8773
hing	-11.8778
ortal	-11.8782
ri	-11.8794
mil	-11.8797
ana	-11.8803
▁sweats	-11.8819
▁striv	-11.8823
▁rooms	-11.8827
ding	-11.8843
tation	-11.8851
ife	-11.8851
▁ap	-11.8853
ft	-11.8858
versa	-11.8863
▁80.	-11.8884
using	-11.8888
shee	-11.8905
pam	-11.8912
lig	-11.8936
ement	-11.8939
▁sole	-11.8939
uite	-11.894
▁paint	-11.8965
▁gran	-11.8985
▁introduce	-11.8986
▁Tuesdays	-11.8986
ber	-11.8991
pped	-11.9009
vin	-11.9064
tress	-11.9077
▁cel	-11.9077
sion	-11.9083
wel	-11.9112
▁universit	-11.9148
▁Ho	-11.9164
pened	-11.9168
▁coll	-11.9186
heck	-11.9198
▁studying	-11.921
ached	-11.9216
cious	-11.9217
20	-11.9246
ian	-11.9248
▁conf	-11.9251
urd	-11.927
▁Mi	-11.9272
▁stor	-11.9279
▁mar	-11.9289
▁clo	-11.9308
▁thir	-11.9309
▁shar	-11.9323
pa	-11.9326
stract	-11.9329
erhaps	-11.9353
cated	-11.9354
▁Mo	-11.9367
parent	-11.939
au	-11.9423
▁communicat	-11.9428
di	-11.943
▁beat	-11.9433
var	-11.9434
nything	-11.9451
▁genetics	-11.9474
vi	-11.9491
▁Has	-11.9512
▁gro	-11.9519
nucleat	-11.9532
▁lasting	-11.9533
▁bear	-11.9542
▁minerals	-11.9552
ching	-11.9579
▁v	-11.9582
no	-11.9593
▁toes	-11.9597
orecasting	-11.96
tal	-11.9616
▁contra	-11.9627
▁bed	-11.9646
ments	-11.9655
DH	-11.9697
▁contracti	-11.9705
▁18.	-11.9732
▁detrain	-11.9797
appy	-11.9799
training	-11.981
▁subs	-11.983
▁channels	-11.9841
▁chi	-11.9871
rom	-11.9894
▁pl	-11.9902
▁shifts	-11.9917
ven	-11.9925
aster	-11.9933
ph	-11.9965
laying	-11.9966
▁mets	-11.9971
▁defin	-11.9996
rum	-12.0024
▁service	-12.0025
our	-12.0051
ifting	-12.006
io	-12.0077
▁infusi	-12.011
kin	-12.0134
plenish	-12.0239
ries	-12.0266
▁sm	-12.0337
gue	-12.0346
eat	-12.0397
▁orally	-12.0406
▁hyperbol	-12.0421
▁imp	-12.0425
▁Su	-12.0443
▁uncle	-12.0479
▁Pi	-12.0491
▁Ei	-12.0502
▁replac	-12.0515
▁diminish	-12.0516
ompartmentalized	-12.0517
▁Fa	-12.0551
etting	-12.0569
▁intentional	-12.0575
▁inspir	-12.0585
dy	-12.0604
pho	-12.0607
serted	-12.0609
ined	-12.061
▁superi	-12.0656
erge	-12.0662
doors	-12.0688
ramping	-12.0702
ologists	-12.0705
▁reabsor	-12.0718
ank	-12.0725
▁feelings	-12.0756
heoretically	-12.0824
pill	-12.0848
▁digesti	-12.0875
▁Apo	-12.0878
▁Fr	-12.0909
▁explore	-12.093
ked	-12.0937
adig	-12.0946
ays	-12.0973
illa	-12.0992
itch	-12.1016
▁organize	-12.1051
lates	-12.1059
like	-12.106
▁starte	-12.1081
▁consisten	-12.1082
that	-12.1095
des	-12.1099
date	-12.1114
ev	-12.1118
▁convinc	-12.1121
nation	-12.1123
ist	-12.1144
nal	-12.1163
endors	-12.1163
science	-12.1167
actor	-12.1173
les	-12.1243
▁Sundays	-12.1244
clear	-12.1256
art	-12.1261
um	-12.1264
▁Scho	-12.1303
verage	-12.131
▁lib	-12.1314
▁bus	-12.1317
▁bikes	-12.1334
king	-12.1375
▁sma	-12.1394
hin	-12.1411
▁explor	-12.1419
▁plann	-12.1438
sis	-12.1446
og	-12.1459
bolic	-12.1471
pit	-12.1489
▁ada	-12.1512
▁inspire	-12.1523
here	-12.1532
stitute	-12.1538
▁fea	-12.1551
▁cu	-12.159
▁diminishe	-12.1595
nk	-12.1642
wed	-12.1653
▁cata	-12.166
ross	-12.1675
tell	-12.1786
nite	-12.179
rdy	-12.1801
ms	-12.1823
▁clam	-12.1864
ugh	-12.1908
▁rat	-12.1925
▁Mondays	-12.1938
ape	-12.1942
ounds	-12.1946
▁bet	-12.1951
har	-12.196
fits	-12.1964
ink	-12.2006
▁priorit	-12.2011
ozen	-12.205
▁Hp	-12.2053
active	-12.2054
▁pot	-12.2077
▁cas	-12.2114
nucle	-12.2137
rge	-12.2165
either	-12.218
▁Br	-12.2203
pen	-12.2207
▁processe	-12.223
rrogate	-12.2275
▁Gab	-12.2295
nads	-12.2313
fting	-12.2324
iable	-12.2346
try	-12.2359
utting	-12.2448
▁fin	-12.246
▁suit	-12.2465
zi	-12.2467
wn	-12.249
05	-12.2492
▁vic	-12.2529
▁grat	-12.2536
▁elevat	-12.2541
rot	-12.2543
▁attr	-12.2547
cut	-12.2603
▁cont	-12.2611
rely	-12.2657
ht	-12.2664
we	-12.2669
sing	-12.267
▁digest	-12.2704
ett	-12.275
▁favorabl	-12.2776
tt	-12.2782
▁Tr	-12.2829
start	-12.2869
▁notic	-12.2914
ecasting	-12.2919
tely	-12.293
br	-12.2934
ove	-12.2934
rash	-12.2936
about	-12.2956
▁cast	-12.2968
▁Hit	-12.3024
you	-12.3043
lite	-12.3092
ta	-12.3097
▁sharp	-12.3102
▁deplet	-12.3105
▁201	-12.3113
▁grade	-12.313
▁associat	-12.3142
eys	-12.3153
ining	-12.3197
▁singles	-12.3198
ium	-12.321
tended	-12.322
50	-12.3247
▁attac	-12.3304
▁Rea	-12.3359
▁Onc	-12.3408
ffle	-12.342
▁utilize	-12.3427
▁cri	-12.347
▁arriv	-12.3513
fa	-12.3543
▁referenc	-12.3546
ggest	-12.3553
circulat	-12.357
▁meditat	-12.3628
cap	-12.3645
▁2.	-12.3647
ul	-12.3661
supported	-12.3674
▁quali	-12.3678
▁bel	-12.3679
▁pur	-12.3703
▁100.	-12.3739
▁facilit	-12.375
spiri	-12.3762
▁prescrib	-12.3807
▁diver	-12.3828
▁absor	-12.3844
▁thick	-12.3848
▁brac	-12.386
ough	-12.3881
▁str	-12.3921
▁relat	-12.3947
absorb	-12.3973
ates	-12.3995
bu	-12.4018
▁innervat	-12.4027
na	-12.404
erg	-12.4055
oth	-12.4057
ool	-12.406
▁Str	-12.4107
compartmentalize	-12.4118
unk	-12.4121
nate	-12.4126
long	-12.4127
▁reli	-12.4129
ancer	-12.4142
ctive	-12.4163
ches	-12.4171
ele	-12.4172
nother	-12.4175
▁acclimate	-12.4197
▁organiz	-12.4199
▁13	-12.4229
ins	-12.4251
gain	-12.4252
▁hemo	-12.4299
0.	-12.4307
▁amo	-12.432
sus	-12.435
▁myo	-12.4407
▁dr	-12.4426
ming	-12.4474
muscle	-12.4487
mber	-12.4516
▁gener	-12.4567
ifiable	-12.4659
▁flu	-12.4663
park	-12.4668
▁normaliz	-12.4701
take	-12.4703
tro	-12.4716
▁differentiat	-12.4718
anish	-12.4724
endar	-12.4796
ration	-12.4806
▁conten	-12.4873
▁Li	-12.4897
▁vis	-12.491
ral	-12.4911
▁origin	-12.4912
▁mat	-12.4917
cer	-12.4946
▁responsi	-12.4951
▁10,	-12.497
▁Re	-12.5028
bed	-12.5055
▁deficien	-12.5097
founder	-12.51
▁tape	-12.5122
tep	-12.5125
tle	-12.5145
round	-12.516
▁finishe	-12.5219
inding	-12.522
ogenesis	-12.5237
exercise	-12.5284
▁Trav	-12.5347
ang	-12.5369
grade	-12.5387
▁cat	-12.5409
▁sto	-12.5423
hed	-12.545
erves	-12.546
matic	-12.5507
matche	-12.5508
▁85	-12.5534
lp	-12.5544
▁mig	-12.5547
▁barri	-12.5548
▁prop	-12.5558
alking	-12.558
cular	-12.5596
▁Po	-12.5628
▁pros	-12.5669
▁sta	-12.5671
▁decathl	-12.5672
▁Surg	-12.5675
▁chron	-12.5718
▁respir	-12.574
nding	-12.5758
rior	-12.576
ack	-12.5768
▁appli	-12.5768
▁promise	-12.577
cal	-12.5805
ad	-12.5823
ttent	-12.5832
▁confe	-12.5837
nned	-12.5842
late	-12.5845
through	-12.5852
▁ac	-12.5871
nc	-12.5903
▁structur	-12.591
▁Get	-12.5924
ca	-12.5952
▁tim	-12.5952
script	-12.598
sle	-12.5989
weight	-12.5995
well	-12.6031
▁Dar	-12.6042
▁impe	-12.6046
▁smalle	-12.6076
▁inclin	-12.6078
down	-12.6085
related	-12.6098
skips	-12.6107
▁decid	-12.6134
▁exhal	-12.6144
▁Super	-12.6154
▁complet	-12.6157
vascular	-12.6201
▁competit	-12.6203
eath	-12.6206
ably	-12.6213
clusion	-12.6215
olo	-12.6223
▁dri	-12.6239
give	-12.625
xin	-12.6255
hang	-12.6259
▁pitche	-12.6295
▁stronge	-12.6296
air	-12.6297
power	-12.6308
treats	-12.6317
edent	-12.6324
fact	-12.6333
ap	-12.6334
23	-12.6341
agon	-12.6342
ombi	-12.6378
wer	-12.6379
specific	-12.6385
after	-12.6413
range	-12.6426
▁Gal	-12.643
ki	-12.645
▁preci	-12.6459
around	-12.6464
nstitut	-12.6468
acked	-12.6474
kill	-12.6525
ek	-12.6531
din	-12.6538
grams	-12.654
lot	-12.6563
▁rec	-12.6564
▁cycl	-12.6571
case	-12.6577
rack	-12.6587
▁Premi	-12.6603
stance	-12.6614
▁squa	-12.662
large	-12.6645
sted	-12.666
▁mechanic	-12.6663
change	-12.6666
▁machin	-12.6667
▁jour	-12.6672
bes	-12.6683
view	-12.6692
function	-12.6694
▁profession	-12.6694
▁plac	-12.6698
lute	-12.6711
ease	-12.6713
play	-12.6714
run	-12.6723
phone	-12.6728
▁triphas	-12.674
optimal	-12.676
did	-12.6769
▁ridi	-12.6769
▁Sp	-12.6771
▁deb	-12.6771
▁recreation	-12.6776
extend	-12.6779
create	-12.6785
▁requir	-12.6785
▁wid	-12.6785
▁fu	-12.6786
bone	-12.6788
lumina	-12.6789
000	-12.6793
13	-12.68
▁magn	-12.6808
word	-12.6809
PE	-12.6817
▁End	-12.6819
peptide	-12.6819
breath	-12.6822
▁respon	-12.683
shift	-12.6832
ological	-12.6835
appear	-12.6846
anabolic	-12.6849
together	-12.685
ractically	-12.6858
chair	-12.6859
alph	-12.6862
develop	-12.6864
▁activat	-12.6864
400	-12.6865
▁determin	-12.6866
With	-12.6868
available	-12.6869
mogen	-12.6871
mark	-12.6875
understood	-12.6876
▁Delt	-12.6876
represent	-12.6876
enhanc	-12.6877
genetic	-12.6879
▁ce	-12.6886
necessary	-12.6886
regulate	-12.6888
structure	-12.689
▁electr	-12.6892
balanced	-12.6892
accurate	-12.6897
plug	-12.6898
efficient	-12.6898
evaluate	-12.6899
CBD	-12.69
fortunate	-12.6903
220	-12.6904
oolkits	-12.6904
sustain	-12.6905
lipid	-12.6905
friend	-12.6905
rance	-12.6907
va	-12.6908
check	-12.691
sensitive	-12.6912
kick	-12.6916
figured	-12.6916
rman	-12.6917
plus	-12.6917
common	-12.6918
steroid	-12.692
mortality	-12.6921
fold	-12.6921
▁pharma	-12.6922
functional	-12.6922
tero	-12.6924
posed	-12.6926
born	-12.6927
cancer	-12.6928
safe	-12.6929
ped	-12.6934
modafinil	-12.6934
▁subject	-12.6938
shoot	-12.6941
dominant	-12.6944
▁occu	-12.6945
custom	-12.6952
manag	-12.6954
▁importan	-12.6956
80	-12.6959
tech	-12.6959
24	-12.6968
▁ovulate	-12.6971
lling	-12.6974
activate	-12.6974
▁deadline	-12.6978
▁wrestler	-12.6979
rrence	-12.6979
▁milligram	-12.698
ball	-12.698
▁400	-12.6986
▁interfer	-12.6986
ynamic	-12.6987
road	-12.6987
▁phytosterol	-12.6988
▁burpee	-12.6988
▁caliper	-12.6988
allow	-12.6988
▁adaptogen	-12.6989
dherence	-12.6989
sound	-12.699
▁biopsie	-12.6991
cetylcholine	-12.6992
▁Skip	-12.6995
▁symptom	-12.6995
needed	-12.6995
▁plateau	-12.6996
▁circumstance	-12.6999
▁electrolyte	-12.7
▁quadricep	-12.7001
▁video	-12.7002
▁nut	-12.7005
draw	-12.7005
▁peeve	-12.7013
kid	-12.7017
inked	-12.7018
act	-12.7018
ju	-12.7019
glob	-12.7021
▁clip	-12.7023
In	-12.7028
▁injection	-12.703
romat	-12.7032
▁domain	-12.7054
▁responder	-12.7057
▁abundan	-12.7059
▁creati	-12.7059
23.	-12.7062
▁1.	-12.7065
▁objectiv	-12.7068
▁simpl	-12.707
meter	-12.7073
form	-12.7075
cu	-12.7077
▁quanti	-12.7079
jections	-12.7081
▁excess	-12.7082
rehab	-12.7084
trauma	-12.7085
say	-12.7085
wise	-12.7086
apol	-12.7086
fall	-12.709
lt	-12.7092
ometrics	-12.71
chron	-12.7101
▁receiv	-12.7102
lternat	-12.7103
▁solu	-12.7103
els	-12.7105
stop	-12.7106
▁damag	-12.7106
volved	-12.7107
continu	-12.7109
▁dynam	-12.7111
itive	-12.7111
▁electro	-12.7111
graph	-12.7114
regard	-12.7114
eezer	-12.7125
▁impr	-12.7127
▁fascinat	-12.7128
▁reg	-12.7131
▁undulat	-12.7131
arian	-12.7137
▁styl	-12.7139
▁sourc	-12.714
▁menopaus	-12.714
rial	-12.714
▁nicotin	-12.7141
equent	-12.7143
odafinil	-12.7144
rida	-12.7144
▁guid	-12.7145
▁sensitiv	-12.7147
▁urinat	-12.7147
▁reserv	-12.7148
▁anecdot	-12.7148
▁fai	-12.7148
▁Appl	-12.7149
ulin	-12.715
logists	-12.7151
▁queu	-12.7153
zed	-12.7154
▁spoke	-12.7154
▁happ	-12.7155
▁phenotyp	-12.7156
▁colleg	-12.7157
▁timestamp	-12.7157
▁observe	-12.7157
blast	-12.7158
▁amaz	-12.7158
riglycerides	-12.7158
▁oppose	-12.7158
▁General	-12.7159
▁physio	-12.7159
radiation	-12.7159
▁Excel	-12.716
▁advanc	-12.716
▁sudden	-12.716
▁discover	-12.716
cel	-12.716
▁Actual	-12.716
▁practi	-12.7161
ctin	-12.7163
kateboard	-12.7163
▁trajector	-12.7164
▁pharmacolog	-12.7165
▁rattle	-12.7165
strate	-12.7165
nounce	-12.7165
lation	-12.7165
▁clarif	-12.7165
▁neurologi	-12.7166
▁assistan	-12.7167
▁osteopeni	-12.7168
pecifically	-12.7168
▁approv	-12.7168
pecificity	-12.7168
utoregulation	-12.7169
▁physiologi	-12.7169
kip	-12.7171
echanical	-12.7171
▁wrestl	-12.7171
arcoplasm	-12.7171
▁fractur	-12.7171
▁mirac	-12.7171
▁analog	-12.7171
ncluded	-12.7172
magine	-12.7172
▁repetiti	-12.7172
nternet	-12.7172
enopause	-12.7172
ublic	-12.7173
ulously	-12.7173
bject	-12.7173
q	-12.7173
ccasional	-12.7173
▁Train	-12.7173
resumably	-12.7173
pecia	-12.7173
eginner	-12.7173
rofessor	-12.7174
ethod	-12.7174
ssimila	-12.7174
hysical	-12.7174
▁diamet	-12.7175
hysiological	-12.7175
sentence	-12.7175
▁princip	-12.7175
ifferent	-12.7175
lasma	-12.7175
ipionate	-12.7175
▁accura	-12.7175
MA	-12.7175
▁cortiso	-12.7175
▁hypothalam	-12.7176
▁anecdotal	-12.7176
evelopment	-12.7176
eadlift	-12.7176
lucose	-12.7176
idojia	-12.7176
▁aggressi	-12.7176
lexibility	-12.7176
ascinating	-12.7176
ngineering	-12.7177
constriction	-12.7177
ductive	-12.7177
nergy	-12.7177
hannel	-12.7177
lassic	-12.7177
affeine	-12.7177
incl	-12.7177
▁Canad	-12.7177
ognitive	-12.7177
omponent	-12.7177
utrition	-12.7177
ollicle	-12.7177
▁resilien	-12.7177
europlasticity	-12.7177
cogniz	-12.7177
▁academi	-12.7177
▁morbid	-12.7178
ailure	-12.7178
stinct	-12.7178
ccentric	-12.7178
▁explosive	-12.7178
educe	-12.7178
ontrast	-12.7178
▁gluc	-12.7178
▁aggre	-12.7178
centric	-12.7178
velope	-12.7178
glyceride	-12.7178
▁danger	-12.7178
olume	-12.7178
etogenic	-12.7178
variabl	-12.7179
▁sympath	-12.7179
▁fasci	-12.7179
▁endometri	-12.7179
euroendocrinolog	-12.7179
quently	-12.7179
▁osteo	-12.7179
implicit	-12.7179
androlone	-12.7179
avalier	-12.7179
culous	-12.7179
xandro	-12.7179
▁Sarco	-12.7179
▁character	-12.7179
saturate	-12.7179
rugg	-12.7179
▁Suppl	-12.7179
indow	-12.7179
▁Hyper	-12.7179
turb	-12.7179
▁Trip	-12.7179
▁grocer	-12.7179
tropic	-12.7179
esmorol	-12.7179
ticul	-12.7179
cules	-12.718
depress	-12.718
ospital	-12.718
▁seque	-12.718
article	-12.718
▁acqu	-12.718
precede	-12.718
choline	-12.718
onestly	-12.718
▁cheat	-12.718
opamine	-12.7181
▁Adren	-12.7181
uads	-12.7181
strating	-12.7181
olks	-12.7181
▁Bei	-12.7181
spective	-12.7181
diabet	-12.7182
achines	-12.7182
kward	-12.7182
ltimately	-12.7182
ajor	-12.7182
▁123	-12.7182
▁disser	-12.7183
onfiden	-12.7183
nivar	-12.7183
actate	-12.7183
earned	-12.7184
▁surge	-12.7184
phra	-12.7184
hort	-12.7185
ersonal	-12.7185
letter	-12.7186
uality	-12.7186
ammer	-12.7186
▁presum	-12.7187
▁interven	-12.7187
articula	-12.7188
▁finger	-12.7188
▁athle	-12.7188
▁anecdota	-12.7189
actic	-12.7189
▁trip	-12.7191
genic	-12.7191
siology	-12.7191
ffic	-12.7192
▁receive	-12.7193
transmitt	-12.7193
▁temp	-12.7193
▁OC	-12.7193
tails	-12.7194
▁compli	-12.7194
ruption	-12.7195
lood	-12.7195
tained	-12.7195
abdo	-12.7195
cise	-12.7196
▁auth	-12.7196
NA	-12.7197
lash	-12.7198
oprote	-12.7198
nemi	-12.7198
ournal	-12.7198
▁surf	-12.7198
elix	-12.7199
▁fighter	-12.7199
▁diff	-12.72
▁Matt	-12.7202
▁remo	-12.7202
▁kilo	-12.7203
Met	-12.7204
lini	-12.7204
xcellent	-12.7205
may	-12.7207
pathetic	-12.7209
▁Dys	-12.721
njoy	-12.7211
▁epi	-12.7212
▁postur	-12.7214
anna	-12.7215
▁Drink	-12.7218
rotein	-12.7219
conce	-12.722
DL	-12.722
unda	-12.722
▁swing	-12.7221
▁Hub	-12.7221
▁premi	-12.7222
rench	-12.7222
▁ov	-12.7224
▁22	-12.7224
▁Basi	-12.7225
▁prioritiz	-12.7226
imits	-12.7226
ucin	-12.7227
▁fru	-12.7227
ype	-12.7227
▁Rho	-12.7229
alk	-12.723
inj	-12.7234
istan	-12.7235
▁carrie	-12.7237
▁laz	-12.7238
▁listener	-12.7244
rop	-12.7249
wai	-12.725
uate	-12.7251
riday	-12.7252
▁adren	-12.7252
rupt	-12.7255
logy	-12.7256
▁download	-12.726
agnos	-12.726
▁Pod	-12.7261
xing	-12.7268
▁quantit	-12.727
▁acc	-12.7272
▁cert	-12.7272
▁chap	-12.7272
arms	-12.7276
▁alter	-12.7278
▁memor	-12.7279
ouple	-12.7279
ortunate	-12.7285
gression	-12.7285
▁kickb	-12.7285
▁deprive	-12.7285
▁dumb	-12.7287
▁desmo	-12.7288
▁col	-12.7288
▁wri	-12.7291
dition	-12.7292
eeping	-12.7292
▁eventual	-12.7293
▁Hear	-12.7293
static	-12.7297
▁strategi	-12.7304
▁unlike	-12.7307
posit	-12.7307
iate	-12.7309
phy	-12.731
ibers	-12.7311
▁Hu	-12.7317
similar	-12.7318
rific	-12.7322
▁athero	-12.7323
rankly	-12.7325
omics	-12.7326
iving	-12.7328
▁complicat	-12.733
▁glob	-12.733
ipids	-12.7337
icity	-12.7337
▁therap	-12.7337
emen	-12.7338
▁Wi	-12.7344
▁lifter	-12.735
ogra	-12.7351
phically	-12.7351
utside	-12.7358
ivel	-12.736
▁nico	-12.7362
▁peptide	-12.7364
pies	-12.7366
phasic	-12.7375
▁sup	-12.7375
ield	-12.7377
gested	-12.738
fight	-12.7382
▁mono	-12.7386
▁dra	-12.7398
cted	-12.74
onize	-12.7401
rsion	-12.7403
▁Bi	-12.7407
▁cro	-12.7408
metic	-12.7412
▁rang	-12.742
▁upset	-12.7422
ski	-12.7424
rner	-12.7425
anx	-12.7427
▁dys	-12.744
▁pharmac	-12.7441
arba	-12.7444
binat	-12.7445
lature	-12.7446
edia	-12.7451
remium	-12.7452
lined	-12.7459
mmed	-12.746
▁script	-12.7468
▁tur	-12.747
mobil	-12.7474
orders	-12.7478
light	-12.7481
eltoids	-12.7488
ale	-12.7492
linked	-12.7492
▁win	-12.7494
theless	-12.7499
▁strik	-12.7505
hand	-12.7506
▁unp	-12.7508
▁sarco	-12.7512
▁mor	-12.7512
oz	-12.7518
kers	-12.753
wond	-12.7541
dge	-12.7544
mplicated	-12.7545
▁cente	-12.7547
lar	-12.7558
tabolic	-12.7559
▁hung	-12.7561
▁rever	-12.7566
astic	-12.7572
bar	-12.7574
eli	-12.7577
▁Sun	-12.758
rdle	-12.758
▁fem	-12.7581
rig	-12.7587
▁compre	-12.7588
▁quiet	-12.7588
▁invo	-12.7591
ami	-12.7592
ext	-12.7596
rically	-12.7601
▁fo	-12.7604
finite	-12.7606
bi	-12.7621
itary	-12.7624
▁skat	-12.7629
ger	-12.7632
▁partic	-12.7646
ded	-12.7648
▁PE	-12.7653
▁bud	-12.7662
▁rais	-12.7663
ign	-12.7676
tance	-12.7684
▁delt	-12.7687
pens	-12.7718
▁underl	-12.7722
▁soci	-12.7724
▁Ph	-12.7728
likely	-12.773
llow	-12.7753
search	-12.7757
herent	-12.776
suit	-12.7761
▁populat	-12.7762
ndurance	-12.7763
5?	-12.7772
▁colla	-12.7783
▁fil	-12.7804
rams	-12.7813
▁indic	-12.7826
ini	-12.7828
▁bread	-12.7842
▁greate	-12.7844
match	-12.7864
scripts	-12.7874
upersets	-12.788
left	-12.7886
ooks	-12.7888
▁recycl	-12.7894
ealthspan	-12.7901
▁j	-12.7908
▁nu	-12.7912
otic	-12.792
spo	-12.7924
ama	-12.7925
ola	-12.793
▁fur	-12.7936
▁Ag	-12.7956
▁recom	-12.7962
almo	-12.7966
oh	-12.7969
▁myos	-12.8003
bris	-12.8005
hine	-12.8009
iterat	-12.8017
▁Pres	-12.8025
shing	-12.8026
burn	-12.8026
ier	-12.804
nage	-12.8052
fy	-12.8055
tori	-12.8057
▁reco	-12.8071
▁Pell	-12.8076
mer	-12.8083
56	-12.8086
▁astrozol	-12.8099
▁rel	-12.8109
▁blu	-12.8115
▁loa	-12.8132
ob	-12.8141
▁Add	-12.8144
▁foll	-12.8155
nue	-12.8168
hea	-12.8169
ie	-12.8194
▁Lon	-12.8203
▁summ	-12.8219
▁mad	-12.8222
nki	-12.8223
ussi	-12.8226
▁initiat	-12.8231
deline	-12.8232
▁nucle	-12.8248
irs	-12.826
▁Clo	-12.8263
▁cove	-12.8269
▁blacke	-12.829
▁shr	-12.8297
linician	-12.8331
ombin	-12.8342
nam	-12.8343
▁occ	-12.8354
jury	-12.836
peed	-12.8361
drill	-12.8361
ush	-12.8364
sp	-12.8376
cing	-12.8379
resis	-12.8387
lusion	-12.8389
tedly	-12.8399
toms	-12.8411
aven	-12.843
▁negat	-12.846
▁decre	-12.8465
▁comple	-12.8483
timately	-12.8521
▁concentr	-12.8526
tric	-12.854
lapping	-12.8553
chest	-12.8556
▁Pre	-12.8558
▁Me	-12.8578
athlete	-12.8579
ckle	-12.8581
easons	-12.8586
ealth	-12.8596
ula	-12.8607
talks	-12.8607
▁rese	-12.8613
pul	-12.8657
oc	-12.8671
are	-12.8722
ients	-12.873
usan	-12.8762
10,	-12.8763
14	-12.8784
promised	-12.8787
main	-12.8799
eek	-12.8802
erall	-12.8802
umin	-12.8822
▁respirat	-12.8829
▁sel	-12.8845
iness	-12.8845
usi	-12.8845
rough	-12.8862
ask	-12.8865
▁Hel	-12.8874
▁arr	-12.8886
stable	-12.8891
▁standardiz	-12.8903
urgery	-12.8908
▁posts	-12.8919
serve	-12.8932
▁heal	-12.8951
32	-12.8964
mbers	-12.897
iet	-12.8995
mpt	-12.9036
sk	-12.9049
ues	-12.9049
▁fra	-12.9085
5.	-12.9093
arate	-12.9154
▁equi	-12.9183
vio	-12.9197
ngland	-12.9211
▁kicks	-12.9222
iables	-12.9261
ship	-12.9278
als	-12.9284
rts	-12.929
necdata	-12.9296
▁Ce	-12.9308
cate	-12.9315
ordi	-12.932
▁northe	-12.9344
▁Af	-12.9363
oe	-12.9368
part	-12.937
points	-12.9378
▁ene	-12.9383
os	-12.9399
▁commen	-12.9402
lifters	-12.9403
▁fal	-12.942
its	-12.9423
planation	-12.9467
▁dim	-12.9469
genesis	-12.9527
▁fis	-12.9563
▁thre	-12.9571
tical	-12.959
ature	-12.9617
▁crit	-12.9639
ea	-12.9652
tain	-12.9663
ngest	-12.9667
rest	-12.9706
▁ban	-12.9729
▁Ye	-12.9769
stic	-12.9785
▁las	-12.9786
▁Cha	-12.9796
tists	-12.9884
ered	-12.9891
tuff	-12.9907
ong	-12.9909
xis	-12.9914
son	-12.9964
bri	-13.0002
erify	-13.0005
▁peda	-13.0025
unning	-13.0037
ks	-13.0109
▁respons	-13.0128
ists	-13.0229
▁Fat	-13.025
▁lands	-13.0256
▁Wo	-13.0282
ime	-13.033
tine	-13.0336
▁obs	-13.0343
lways	-13.0448
urn	-13.0467
ytes	-13.0467
▁mod	-13.054
ants	-13.0589
ffor	-13.0623
ravel	-13.0629
tually	-13.0673
nuous	-13.0676
dent	-13.0738
rence	-13.0755
▁Ord	-13.0759
ief	-13.0773
ings	-13.0784
▁steri	-13.0816
▁contr	-13.0822
rated	-13.0904
bod	-13.0914
oversi	-13.0925
casting	-13.093
▁inf	-13.0931
sma	-13.0969
▁Fran	-13.0974
ull	-13.1003
▁preparat	-13.1024
▁Des	-13.1025
nals	-13.1081
▁Ros	-13.1131
▁Si	-13.1139
ertain	-13.117
nks	-13.1193
cle	-13.1203
ali	-13.1215
▁ent	-13.1255
▁intensi	-13.1366
▁sin	-13.1474
▁ske	-13.1499
ord	-13.1554
shi	-13.1606
cre	-13.1623
▁individualiz	-13.1644
ures	-13.1787
for	-13.1799
ru	-13.1845
night	-13.1846
▁tric	-13.1866
▁spe	-13.1898
ces	-13.1935
mitte	-13.1947
app	-13.1956
ney	-13.1969
ect	-13.2004
▁cap	-13.2035
▁med	-13.2043
▁deca	-13.2068
tru	-13.2069
▁suppresse	-13.2077
archi	-13.2108
sack	-13.2112
▁assist	-13.2149
ou	-13.2152
scape	-13.2262
ovement	-13.2294
sal	-13.2374
ha	-13.2383
▁sal	-13.2451
▁capt	-13.2461
▁circulati	-13.2496
SD	-13.2545
▁bat	-13.2567
joy	-13.2616
ains	-13.2643
dating	-13.2719
▁slo	-13.2747
tw	-13.2773
▁comm	-13.2857
ips	-13.2873
assi	-13.2908
▁thicke	-13.2935
ept	-13.2943
▁hy	-13.2966
▁confusi	-13.2994
▁stro	-13.301
▁persp	-13.3055
gm	-13.3112
los	-13.3115
edic	-13.314
▁prepar	-13.3163
ken	-13.3203
ndependent	-13.322
nf	-13.3261
pple	-13.3274
nic	-13.3336
bl	-13.3408
▁visib	-13.3429
then	-13.3469
▁applica	-13.3539
▁depleti	-13.3561
▁movi	-13.3587
▁Yea	-13.3634
ones	-13.3637
urs	-13.3648
▁purp	-13.3669
orsemen	-13.3767
▁doc	-13.3771
ned	-13.3872
▁bell	-13.394
nning	-13.3955
▁yo	-13.3975
onda	-13.4033
▁0.	-13.4034
aga	-13.4075
▁ID	-13.4122
▁aw	-13.4141
▁preventi	-13.4168
gge	-13.4174
roughs	-13.4339
iming	-13.4345
eth	-13.4349
rity	-13.4379
W	-14.0956
